{
  "version": "1.0",
  "truncation": null,
  "padding": null,
  "added_tokens": [
    {
      "id": 151643,
      "content": "<|endoftext|>",
      "single_word": false,
      "lstrip": false,
      "rstrip": false,
      "normalized": false,
      "special": true
    },
    {
      "id": 151644,
      "content": "<|im_start|>",
      "single_word": false,
      "lstrip": false,
      "rstrip": false,
      "normalized": false,
      "special": true
    },
    {
      "id": 151645,
      "content": "<|im_end|>",
      "single_word": false,
      "lstrip": false,
      "rstrip": false,
      "normalized": false,
      "special": true
    },
    {
      "id": 151646,
      "content": "<|object_ref_start|>",
      "single_word": false,
      "lstrip": false,
      "rstrip": false,
      "normalized": false,
      "special": true
    },
    {
      "id": 151647,
      "content": "<|object_ref_end|>",
      "single_word": false,
      "lstrip": false,
      "rstrip": false,
      "normalized": false,
      "special": true
    },
    {
      "id": 151648,
      "content": "<|box_start|>",
      "single_word": false,
      "lstrip": false,
      "rstrip": false,
      "normalized": false,
      "special": true
    },
    {
      "id": 151649,
      "content": "<|box_end|>",
      "single_word": false,
      "lstrip": false,
      "rstrip": false,
      "normalized": false,
      "special": true
    },
    {
      "id": 151650,
      "content": "<|quad_start|>",
      "single_word": false,
      "lstrip": false,
      "rstrip": false,
      "normalized": false,
      "special": true
    },
    {
      "id": 151651,
      "content": "<|quad_end|>",
      "single_word": false,
      "lstrip": false,
      "rstrip": false,
      "normalized": false,
      "special": true
    },
    {
      "id": 151652,
      "content": "<|vision_start|>",
      "single_word": false,
      "lstrip": false,
      "rstrip": false,
      "normalized": false,
      "special": true
    },
    {
      "id": 151653,
      "content": "<|vision_end|>",
      "single_word": false,
      "lstrip": false,
      "rstrip": false,
      "normalized": false,
      "special": true
    },
    {
      "id": 151654,
      "content": "<|vision_pad|>",
      "single_word": false,
      "lstrip": false,
      "rstrip": false,
      "normalized": false,
      "special": true
    },
    {
      "id": 151655,
      "content": "<|image_pad|>",
      "single_word": false,
      "lstrip": false,
      "rstrip": false,
      "normalized": false,
      "special": true
    },
    {
      "id": 151656,
      "content": "<|video_pad|>",
      "single_word": false,
      "lstrip": false,
      "rstrip": false,
      "normalized": false,
      "special": true
    },
    {
      "id": 151657,
      "content": "<tool_call>",
      "single_word": false,
      "lstrip": false,
      "rstrip": false,
      "normalized": false,
      "special": false
    },
    {
      "id": 151658,
      "content": "</tool_call>",
      "single_word": false,
      "lstrip": false,
      "rstrip": false,
      "normalized": false,
      "special": false
    },
    {
      "id": 151659,
      "content": "<|fim_prefix|>",
      "single_word": false,
      "lstrip": false,
      "rstrip": false,
      "normalized": false,
      "special": false
    },
    {
      "id": 151660,
      "content": "<|fim_middle|>",
      "single_word": false,
      "lstrip": false,
      "rstrip": false,
      "normalized": false,
      "special": false
    },
    {
      "id": 151661,
      "content": "<|fim_suffix|>",
      "single_word": false,
      "lstrip": false,
      "rstrip": false,
      "normalized": false,
      "special": false
    },
    {
      "id": 151662,
      "content": "<|fim_pad|>",
      "single_word": false,
      "lstrip": false,
      "rstrip": false,
      "normalized": false,
      "special": false
    },
    {
      "id": 151663,
      "content": "<|repo_name|>",
      "single_word": false,
      "lstrip": false,
      "rstrip": false,
      "normalized": false,
      "special": false
    },
    {
      "id": 151664,
      "content": "<|file_sep|>",
      "single_word": false,
      "lstrip": false,
      "rstrip": false,
      "normalized": false,
      "special": false
    },
    {
      "id": 151665,
      "content": "<tool_response>",
      "single_word": false,
      "lstrip": false,
      "rstrip": false,
      "normalized": false,
      "special": false
    },
    {
      "id": 151666,
      "content": "</tool_response>",
      "single_word": false,
      "lstrip": false,
      "rstrip": false,
      "normalized": false,
      "special": false
    },
    {
      "id": 151667,
      "content": "<think>",
      "single_word": false,
      "lstrip": false,
      "rstrip": false,
      "normalized": false,
      "special": false
    },
    {
      "id": 151668,
      "content": "</think>",
      "single_word": false,
      "lstrip": false,
      "rstrip": false,
      "normalized": false,
      "special": false
    }
  ],
  "normalizer": {
    "type": "NFC"
  },
  "pre_tokenizer": {
    "type": "Sequence",
    "pretokenizers": [
      {
        "type": "Split",
        "pattern": {
          "Regex": "(?i:'s|'t|'re|'ve|'m|'ll|'d)|[^\\r\\n\\p{L}\\p{N}]?\\p{L}+|\\p{N}| ?[^\\s\\p{L}\\p{N}]+[\\r\\n]*|\\s*[\\r\\n]+|\\s+(?!\\S)|\\s+"
        },
        "behavior": "Isolated",
        "invert": false
      },
      {
        "type": "ByteLevel",
        "add_prefix_space": false,
        "trim_offsets": false,
        "use_regex": false
      }
    ]
  },
  "post_processor": {
    "type": "ByteLevel",
    "add_prefix_space": false,
    "trim_offsets": false,
    "use_regex": false
  },
  "decoder": {
    "type": "ByteLevel",
    "add_prefix_space": false,
    "trim_offsets": false,
    "use_regex": false
  },
  "model": {
    "type": "BPE",
    "dropout": null,
    "unk_token": null,
    "continuing_subword_prefix": "",
    "end_of_word_suffix": "",
    "fuse_unk": false,
    "byte_fallback": false,
    "ignore_merges": false,
    "vocab": {
      "!": 0,
      "\"": 1,
      "#": 2,
      "$": 3,
      "%": 4,
      "&": 5,
      "'": 6,
      "(": 7,
      ")": 8,
      "*": 9,
      "+": 10,
      ",": 11,
      "-": 12,
      ".": 13,
      "/": 14,
      "0": 15,
      "1": 16,
      "2": 17,
      "3": 18,
      "4": 19,
      "5": 20,
      "6": 21,
      "7": 22,
      "8": 23,
      "9": 24,
      ":": 25,
      ";": 26,
      "<": 27,
      "=": 28,
      ">": 29,
      "?": 30,
      "@": 31,
      "A": 32,
      "B": 33,
      "C": 34,
      "D": 35,
      "E": 36,
      "F": 37,
      "G": 38,
      "H": 39,
      "I": 40,
      "J": 41,
      "K": 42,
      "L": 43,
      "M": 44,
      "N": 45,
      "O": 46,
      "P": 47,
      "Q": 48,
      "R": 49,
      "S": 50,
      "T": 51,
      "U": 52,
      "V": 53,
      "W": 54,
      "X": 55,
      "Y": 56,
      "Z": 57,
      "[": 58,
      "\\": 59,
      "]": 60,
      "^": 61,
      "_": 62,
      "`": 63,
      "a": 64,
      "b": 65,
      "c": 66,
      "d": 67,
      "e": 68,
      "f": 69,
      "g": 70,
      "h": 71,
      "i": 72,
      "j": 73,
      "k": 74,
      "l": 75,
      "m": 76,
      "n": 77,
      "o": 78,
      "p": 79,
      "q": 80,
      "r": 81,
      "s": 82,
      "t": 83,
      "u": 84,
      "v": 85,
      "w": 86,
      "x": 87,
      "y": 88,
      "z": 89,
      "{": 90,
      "|": 91,
      "}": 92,
      "~": 93,
      "Â¡": 94,
      "Â¢": 95,
      "Â£": 96,
      "Â¤": 97,
      "Â¥": 98,
      "Â¦": 99,
      "Â§": 100,
      "Â¨": 101,
      "Â©": 102,
      "Âª": 103,
      "Â«": 104,
      "Â¬": 105,
      "Â®": 106,
      "Â¯": 107,
      "Â°": 108,
      "Â±": 109,
      "Â²": 110,
      "Â³": 111,
      "Â´": 112,
      "Âµ": 113,
      "Â¶": 114,
      "Â·": 115,
      "Â¸": 116,
      "Â¹": 117,
      "Âº": 118,
      "Â»": 119,
      "Â¼": 120,
      "Â½": 121,
      "Â¾": 122,
      "Â¿": 123,
      "Ã€": 124,
      "Ã": 125,
      "Ã‚": 126,
      "Ãƒ": 127,
      "Ã„": 128,
      "Ã…": 129,
      "Ã†": 130,
      "Ã‡": 131,
      "Ãˆ": 132,
      "Ã‰": 133,
      "ÃŠ": 134,
      "Ã‹": 135,
      "ÃŒ": 136,
      "Ã": 137,
      "ÃŽ": 138,
      "Ã": 139,
      "Ã": 140,
      "Ã‘": 141,
      "Ã’": 142,
      "Ã“": 143,
      "Ã”": 144,
      "Ã•": 145,
      "Ã–": 146,
      "Ã—": 147,
      "Ã˜": 148,
      "Ã™": 149,
      "Ãš": 150,
      "Ã›": 151,
      "Ãœ": 152,
      "Ã": 153,
      "Ãž": 154,
      "ÃŸ": 155,
      "Ã ": 156,
      "Ã¡": 157,
      "Ã¢": 158,
      "Ã£": 159,
      "Ã¤": 160,
      "Ã¥": 161,
      "Ã¦": 162,
      "Ã§": 163,
      "Ã¨": 164,
      "Ã©": 165,
      "Ãª": 166,
      "Ã«": 167,
      "Ã¬": 168,
      "Ã­": 169,
      "Ã®": 170,
      "Ã¯": 171,
      "Ã°": 172,
      "Ã±": 173,
      "Ã²": 174,
      "Ã³": 175,
      "Ã´": 176,
      "Ãµ": 177,
      "Ã¶": 178,
      "Ã·": 179,
      "Ã¸": 180,
      "Ã¹": 181,
      "Ãº": 182,
      "Ã»": 183,
      "Ã¼": 184,
      "Ã½": 185,
      "Ã¾": 186,
      "Ã¿": 187,
      "Ä€": 188,
      "Ä": 189,
      "Ä‚": 190,
      "Äƒ": 191,
      "Ä„": 192,
      "Ä…": 193,
      "Ä†": 194,
      "Ä‡": 195,
      "Äˆ": 196,
      "Ä‰": 197,
      "ÄŠ": 198,
      "Ä‹": 199,
      "ÄŒ": 200,
      "Ä": 201,
      "ÄŽ": 202,
      "Ä": 203,
      "Ä": 204,
      "Ä‘": 205,
      "Ä’": 206,
      "Ä“": 207,
      "Ä”": 208,
      "Ä•": 209,
      "Ä–": 210,
      "Ä—": 211,
      "Ä˜": 212,
      "Ä™": 213,
      "Äš": 214,
      "Ä›": 215,
      "Äœ": 216,
      "Ä": 217,
      "Äž": 218,
      "ÄŸ": 219,
      "Ä ": 220,
      "Ä¡": 221,
      "Ä¢": 222,
      "Ä£": 223,
      "Ä¤": 224,
      "Ä¥": 225,
      "Ä¦": 226,
      "Ä§": 227,
      "Ä¨": 228,
      "Ä©": 229,
      "Äª": 230,
      "Ä«": 231,
      "Ä¬": 232,
      "Ä­": 233,
      "Ä®": 234,
      "Ä¯": 235,
      "Ä°": 236,
      "Ä±": 237,
      "Ä²": 238,
      "Ä³": 239,
      "Ä´": 240,
      "Äµ": 241,
      "Ä¶": 242,
      "Ä·": 243,
      "Ä¸": 244,
      "Ä¹": 245,
      "Äº": 246,
      "Ä»": 247,
      "Ä¼": 248,
      "Ä½": 249,
      "Ä¾": 250,
      "Ä¿": 251,
      "Å€": 252,
      "Å": 253,
      "Å‚": 254,
      "Åƒ": 255,
      "Ä Ä ": 256,
      "Ä Ä Ä Ä ": 257,
      "in": 258,
      "Ä t": 259,
      "Ä Ä Ä Ä Ä Ä Ä Ä ": 260,
      "er": 261,
      "Ä Ä Ä ": 262,
      "on": 263,
      "Ä a": 264,
      "re": 265,
      "at": 266,
      "st": 267,
      "en": 268,
      "or": 269,
      "Ä th": 270,
      "ÄŠÄŠ": 271,
      "Ä c": 272,
      "le": 273,
      "Ä s": 274,
      "it": 275,
      "an": 276,
      "ar": 277,
      "al": 278,
      "Ä the": 279,
      ";ÄŠ": 280,
      "Ä p": 281,
      "Ä f": 282,
      "ou": 283,
      "Ä =": 284,
      "is": 285,
      "Ä Ä Ä Ä Ä Ä Ä ": 286,
      "ing": 287,
      "es": 288,
      "Ä w": 289,
      "ion": 290,
      "ed": 291,
      "ic": 292,
      "Ä b": 293,
      "Ä d": 294,
      "et": 295,
      "Ä m": 296,
      "Ä o": 297,
      "Ä‰Ä‰": 298,
      "ro": 299,
      "as": 300,
      "el": 301,
      "ct": 302,
      "nd": 303,
      "Ä in": 304,
      "Ä h": 305,
      "ent": 306,
      "id": 307,
      "Ä n": 308,
      "am": 309,
      "Ä Ä Ä Ä Ä Ä Ä Ä Ä Ä Ä ": 310,
      "Ä to": 311,
      "Ä re": 312,
      "--": 313,
      "Ä {": 314,
      "Ä of": 315,
      "om": 316,
      ");ÄŠ": 317,
      "im": 318,
      "ÄÄŠ": 319,
      "Ä (": 320,
      "il": 321,
      "//": 322,
      "Ä and": 323,
      "ur": 324,
      "se": 325,
      "Ä l": 326,
      "ex": 327,
      "Ä S": 328,
      "ad": 329,
      "Ä \"": 330,
      "ch": 331,
      "ut": 332,
      "if": 333,
      "**": 334,
      "Ä }": 335,
      "em": 336,
      "ol": 337,
      "Ä Ä Ä Ä Ä Ä Ä Ä Ä Ä Ä Ä Ä Ä Ä Ä ": 338,
      "th": 339,
      ")ÄŠ": 340,
      "Ä {ÄŠ": 341,
      "Ä g": 342,
      "ig": 343,
      "iv": 344,
      ",ÄŠ": 345,
      "ce": 346,
      "od": 347,
      "Ä v": 348,
      "ate": 349,
      "Ä T": 350,
      "ag": 351,
      "ay": 352,
      "Ä *": 353,
      "ot": 354,
      "us": 355,
      "Ä C": 356,
      "Ä st": 357,
      "Ä I": 358,
      "un": 359,
      "ul": 360,
      "ue": 361,
      "Ä A": 362,
      "ow": 363,
      "Ä '": 364,
      "ew": 365,
      "Ä <": 366,
      "ation": 367,
      "()": 368,
      "Ä for": 369,
      "ab": 370,
      "ort": 371,
      "um": 372,
      "ame": 373,
      "Ä is": 374,
      "pe": 375,
      "tr": 376,
      "ck": 377,
      "Ã¢Ä¢": 378,
      "Ä y": 379,
      "ist": 380,
      "----": 381,
      ".ÄŠÄŠ": 382,
      "he": 383,
      "Ä e": 384,
      "lo": 385,
      "Ä M": 386,
      "Ä be": 387,
      "ers": 388,
      "Ä on": 389,
      "Ä con": 390,
      "ap": 391,
      "ub": 392,
      "Ä P": 393,
      "Ä Ä Ä Ä Ä Ä Ä Ä Ä Ä Ä Ä Ä Ä Ä ": 394,
      "ass": 395,
      "int": 396,
      ">ÄŠ": 397,
      "ly": 398,
      "urn": 399,
      "Ä $": 400,
      ";ÄŠÄŠ": 401,
      "av": 402,
      "port": 403,
      "ir": 404,
      "->": 405,
      "nt": 406,
      "ction": 407,
      "end": 408,
      "Ä de": 409,
      "ith": 410,
      "out": 411,
      "turn": 412,
      "our": 413,
      "Ä Ä Ä Ä Ä ": 414,
      "lic": 415,
      "res": 416,
      "pt": 417,
      "==": 418,
      "Ä this": 419,
      "Ä wh": 420,
      "Ä if": 421,
      "Ä D": 422,
      "ver": 423,
      "age": 424,
      "Ä B": 425,
      "ht": 426,
      "ext": 427,
      "=\"": 428,
      "Ä that": 429,
      "****": 430,
      "Ä R": 431,
      "Ä it": 432,
      "ess": 433,
      "Ä F": 434,
      "Ä r": 435,
      "os": 436,
      "and": 437,
      "Ä as": 438,
      "ect": 439,
      "ke": 440,
      "rom": 441,
      "Ä //": 442,
      "con": 443,
      "Ä L": 444,
      "(\"": 445,
      "qu": 446,
      "lass": 447,
      "Ä with": 448,
      "iz": 449,
      "de": 450,
      "Ä N": 451,
      "Ä al": 452,
      "op": 453,
      "up": 454,
      "get": 455,
      "Ä }ÄŠ": 456,
      "ile": 457,
      "Ä an": 458,
      "ata": 459,
      "ore": 460,
      "ri": 461,
      "Ä pro": 462,
      ";ÄÄŠ": 463,
      "Ä‰Ä‰Ä‰Ä‰": 464,
      "ter": 465,
      "ain": 466,
      "Ä W": 467,
      "Ä E": 468,
      "Ä com": 469,
      "Ä return": 470,
      "art": 471,
      "Ä H": 472,
      "ack": 473,
      "import": 474,
      "ublic": 475,
      "Ä or": 476,
      "est": 477,
      "ment": 478,
      "Ä G": 479,
      "able": 480,
      "Ä -": 481,
      "ine": 482,
      "ill": 483,
      "ind": 484,
      "ere": 485,
      "::": 486,
      "ity": 487,
      "Ä +": 488,
      "Ä tr": 489,
      "elf": 490,
      "ight": 491,
      "('": 492,
      "orm": 493,
      "ult": 494,
      "str": 495,
      "..": 496,
      "\",": 497,
      "Ä you": 498,
      "ype": 499,
      "pl": 500,
      "Ä new": 501,
      "Ä j": 502,
      "Ä Ä Ä Ä Ä Ä Ä Ä Ä Ä Ä Ä Ä Ä Ä Ä Ä Ä Ä ": 503,
      "Ä from": 504,
      "Ä ex": 505,
      "Ä O": 506,
      "ld": 507,
      "Ä [": 508,
      "oc": 509,
      ":ÄŠ": 510,
      "Ä se": 511,
      "Ä le": 512,
      "--------": 513,
      ".s": 514,
      "{ÄŠ": 515,
      "',": 516,
      "ant": 517,
      "Ä at": 518,
      "ase": 519,
      ".c": 520,
      "Ä ch": 521,
      "</": 522,
      "ave": 523,
      "ang": 524,
      "Ä are": 525,
      "Ä int": 526,
      "Ã¢Ä¢Ä»": 527,
      "_t": 528,
      "ert": 529,
      "ial": 530,
      "act": 531,
      "}ÄŠ": 532,
      "ive": 533,
      "ode": 534,
      "ost": 535,
      "Ä class": 536,
      "Ä not": 537,
      "og": 538,
      "ord": 539,
      "alue": 540,
      "all": 541,
      "ff": 542,
      "();ÄŠ": 543,
      "ont": 544,
      "ime": 545,
      "are": 546,
      "Ä U": 547,
      "Ä pr": 548,
      "Ä :": 549,
      "ies": 550,
      "ize": 551,
      "ure": 552,
      "Ä by": 553,
      "ire": 554,
      "Ä }ÄŠÄŠ": 555,
      ".p": 556,
      "Ä sh": 557,
      "ice": 558,
      "ast": 559,
      "ption": 560,
      "tring": 561,
      "ok": 562,
      "__": 563,
      "cl": 564,
      "##": 565,
      "Ä he": 566,
      "ard": 567,
      ").": 568,
      "Ä @": 569,
      "iew": 570,
      "Ä‰Ä‰Ä‰": 571,
      "Ä was": 572,
      "ip": 573,
      "this": 574,
      "Ä u": 575,
      "Ä The": 576,
      "ide": 577,
      "ace": 578,
      "ib": 579,
      "ac": 580,
      "rou": 581,
      "Ä we": 582,
      "ject": 583,
      "Ä public": 584,
      "ak": 585,
      "ve": 586,
      "ath": 587,
      "oid": 588,
      "Ä =>": 589,
      "ust": 590,
      "que": 591,
      "Ä res": 592,
      "))": 593,
      "'s": 594,
      "Ä k": 595,
      "ans": 596,
      "yst": 597,
      "unction": 598,
      "********": 599,
      "Ä i": 600,
      "Ä us": 601,
      "pp": 602,
      "one": 603,
      "ail": 604,
      "====": 605,
      "name": 606,
      "Ä str": 607,
      "Ä /": 608,
      "Ä &": 609,
      "ach": 610,
      "div": 611,
      "ystem": 612,
      "ell": 613,
      "Ä have": 614,
      "err": 615,
      "ould": 616,
      "ull": 617,
      "pon": 618,
      "Ä J": 619,
      "_p": 620,
      "Ä ==": 621,
      "ign": 622,
      "St": 623,
      ".ÄŠ": 624,
      "Ä pl": 625,
      ");ÄŠÄŠ": 626,
      "form": 627,
      "put": 628,
      "ount": 629,
      "}ÄŠÄŠ": 630,
      "dd": 631,
      "ite": 632,
      "Ä get": 633,
      "rr": 634,
      "ome": 635,
      "Ä Ã¢Ä¢": 636,
      "aram": 637,
      "cc": 638,
      "Ä */": 639,
      "ER": 640,
      "In": 641,
      "les": 642,
      "_s": 643,
      "ong": 644,
      "ie": 645,
      "Ä can": 646,
      "Ä V": 647,
      "erv": 648,
      "pr": 649,
      "Ä un": 650,
      "row": 651,
      "ber": 652,
      "Ä do": 653,
      "ll": 654,
      "Ä el": 655,
      "Ä self": 656,
      "ated": 657,
      "ary": 658,
      "Ä .": 659,
      "']": 660,
      "ud": 661,
      "Ä en": 662,
      "Ä Th": 663,
      "Ä Ä Ä Ä Ä Ä Ä Ä Ä Ä Ä Ä Ä Ä Ä Ä Ä Ä Ä Ä Ä Ä Ä ": 664,
      "te": 665,
      "_c": 666,
      "uct": 667,
      "Ä ab": 668,
      "ork": 669,
      ".get": 670,
      "Ä #": 671,
      "aw": 672,
      "ress": 673,
      "ob": 674,
      "Name": 675,
      "app": 676,
      "['": 677,
      "Ä all": 678,
      "ory": 679,
      "ition": 680,
      "ance": 681,
      "ear": 682,
      "Ä cont": 683,
      "vent": 684,
      "ia": 685,
      "Ä will": 686,
      "IN": 687,
      "Ä Ä Ä Ä Ä Ä Ä Ä Ä ": 688,
      "return": 689,
      "Ä </": 690,
      "data": 691,
      ")ÄŠÄŠ": 692,
      "Re": 693,
      "ple": 694,
      "ild": 695,
      "ther": 696,
      "Ä your": 697,
      "\"ÄŠ": 698,
      "($": 699,
      "Ä out": 700,
      "),": 701,
      "Ä has": 702,
      "String": 703,
      "so": 704,
      "Ä up": 705,
      "ax": 706,
      "Ä def": 707,
      "Ä bo": 708,
      "ge": 709,
      "alse": 710,
      "ON": 711,
      "per": 712,
      "ich": 713,
      "Ä but": 714,
      "Ä ÄŠ": 715,
      "Ä _": 716,
      "_m": 717,
      "add": 718,
      "quest": 719,
      "odel": 720,
      "self": 721,
      "ery": 722,
      "ft": 723,
      "ens": 724,
      "////": 725,
      "ake": 726,
      ".C": 727,
      "Ä go": 728,
      "Ä function": 729,
      "Ä K": 730,
      "ivate": 731,
      "Ä im": 732,
      "Ä const": 733,
      ".t": 734,
      "Ä */ÄŠ": 735,
      ");ÄÄŠ": 736,
      "Ä void": 737,
      "Ä set": 738,
      "Ä System": 739,
      "cri": 740,
      "()ÄŠ": 741,
      "li": 742,
      "Ä‰if": 743,
      ".m": 744,
      "ally": 745,
      "set": 746,
      "ep": 747,
      "Ã¢Ä¢Ä»s": 748,
      "bo": 749,
      "def": 750,
      "',ÄŠ": 751,
      "Ä me": 752,
      "Ä !": 753,
      "atch": 754,
      "\">": 755,
      "\",ÄŠ": 756,
      "ec": 757,
      "Ä In": 758,
      "ph": 759,
      "Ä |": 760,
      "_f": 761,
      "Ä var": 762,
      "ence": 763,
      "Id": 764,
      "ree": 765,
      "ink": 766,
      "lect": 767,
      "ug": 768,
      "eth": 769,
      "Ä else": 770,
      "----------------": 771,
      "cont": 772,
      "Ä so": 773,
      "atic": 774,
      "Ä lo": 775,
      "pro": 776,
      "ton": 777,
      "ss": 778,
      "own": 779,
      "abel": 780,
      "oint": 781,
      "ous": 782,
      "eld": 783,
      "ST": 784,
      "The": 785,
      "Ä Ä Ä Ä Ä Ä Ä Ä Ä Ä Ä Ä Ä Ä Ä Ä Ä Ä Ä Ä Ä Ä Ä Ä Ä Ä Ä Ä Ä Ä Ä Ä ": 786,
      "RE": 787,
      "\":": 788,
      "olor": 789,
      "tp": 790,
      "eg": 791,
      "key": 792,
      "ude": 793,
      "Ä St": 794,
      "ound": 795,
      "Ä ar": 796,
      "\");ÄŠ": 797,
      "ener": 798,
      "ser": 799,
      "bject": 800,
      "essage": 801,
      "fer": 802,
      "Ä more": 803,
      "ations": 804,
      "ents": 805,
      "Ä his": 806,
      "Ä they": 807,
      ".S": 808,
      "Ä Y": 809,
      "use": 810,
      "ne": 811,
      "ish": 812,
      "old": 813,
      "_d": 814,
      "io": 815,
      "ield": 816,
      "Ä per": 817,
      "Cont": 818,
      "ings": 819,
      "####": 820,
      "Ä data": 821,
      "Ä sa": 822,
      "ef": 823,
      "fo": 824,
      "Ä one": 825,
      "eng": 826,
      "Ä dis": 827,
      "AT": 828,
      "Ä name": 829,
      "Ä true": 830,
      "val": 831,
      "led": 832,
      ".f": 833,
      "Ä ne": 834,
      "Ä end": 835,
      ".T": 836,
      "cre": 837,
      "ark": 838,
      "log": 839,
      "Ex": 840,
      "error": 841,
      "_id": 842,
      "urre": 843,
      "ange": 844,
      "Ä null": 845,
      "rray": 846,
      "Ä my": 847,
      "pan": 848,
      "ict": 849,
      "ator": 850,
      "View": 851,
      "List": 852,
      "Ä‰return": 853,
      "Ã¢Ä¢Ä¿": 854,
      "Ä pre": 855,
      "Ä x": 856,
      "clude": 857,
      "arg": 858,
      "ov": 859,
      ".h": 860,
      "Ä >": 861,
      "Ä their": 862,
      "')": 863,
      "irst": 864,
      "ick": 865,
      "gh": 866,
      "LE": 867,
      "OR": 868,
      "Ä private": 869,
      "tem": 870,
      "ÄÄŠÄÄŠ": 871,
      "user": 872,
      "Ä )": 873,
      "com": 874,
      ".A": 875,
      "\";ÄŠ": 876,
      "Ä id": 877,
      "read": 878,
      "Ä who": 879,
      "_b": 880,
      "\">ÄŠ": 881,
      "Ä time": 882,
      "Ä man": 883,
      "ry": 884,
      "========": 885,
      "roup": 886,
      "rop": 887,
      "public": 888,
      "vel": 889,
      "umber": 890,
      "ble": 891,
      "Ä which": 892,
      "****************": 893,
      "Ä any": 894,
      "Ä false": 895,
      "we": 896,
      "Ä value": 897,
      "Ä li": 898,
      "\")": 899,
      "nder": 900,
      "gr": 901,
      "Ä no": 902,
      "param": 903,
      "fig": 904,
      ".com": 905,
      "Ä app": 906,
      "_l": 907,
      "ions": 908,
      ".D": 909,
      "Ä Ch": 910,
      "Ä about": 911,
      "Ä add": 912,
      "Ä su": 913,
      "Ä string": 914,
      "ID": 915,
      "Ä over": 916,
      "string": 917,
      ".l": 918,
      "ource": 919,
      "_C": 920,
      "]ÄŠ": 921,
      "Ä qu": 922,
      "Ä String": 923,
      "ca": 924,
      "SE": 925,
      "Ä ro": 926,
      "sh": 927,
      "ual": 928,
      "Type": 929,
      "son": 930,
      "new": 931,
      "ern": 932,
      "Ä ag": 933,
      "AR": 934,
      "];ÄŠ": 935,
      "].": 936,
      "Ä ?": 937,
      "ical": 938,
      "Ä des": 939,
      "uth": 940,
      "ix": 941,
      "ays": 942,
      "Ä type": 943,
      "'t": 944,
      "ault": 945,
      "Ä inter": 946,
      "var": 947,
      ".b": 948,
      "Ä part": 949,
      ".d": 950,
      "urrent": 951,
      "IT": 952,
      "EN": 953,
      "enc": 954,
      "(f": 955,
      "ra": 956,
      "value": 957,
      "cho": 958,
      "utton": 959,
      "ose": 960,
      "Ä !=": 961,
      "ater": 962,
      "ÃƒÂ©": 963,
      "reate": 964,
      "oll": 965,
      "pos": 966,
      "yle": 967,
      "ng": 968,
      "AL": 969,
      "using": 970,
      "ames": 971,
      "Ä {ÄÄŠ": 972,
      "ates": 973,
      "ely": 974,
      "Ä work": 975,
      "Ä em": 976,
      "inal": 977,
      "Ä sp": 978,
      "Ä when": 979,
      ".set": 980,
      "Ä Ä Ä Ä Ä Ä ": 981,
      "):ÄŠ": 982,
      "to": 983,
      "quire": 984,
      "indow": 985,
      "lement": 986,
      "pect": 987,
      "ash": 988,
      "[i": 989,
      "Ä use": 990,
      ".F": 991,
      "pec": 992,
      "Ä ad": 993,
      "ove": 994,
      "ception": 995,
      "ength": 996,
      "include": 997,
      "ader": 998,
      "Ä Ä Ä Ä Ä Ä Ä Ä Ä Ä Ä Ä Ä Ä Ä Ä Ä Ä Ä Ä Ä Ä Ä Ä Ä Ä Ä ": 999,
      "atus": 1000,
      "Th": 1001,
      "itle": 1002,
      "rit": 1003,
      "void": 1004,
      "().": 1005,
      "(ÄŠ": 1006,
      "Ä off": 1007,
      "Ä other": 1008,
      "Ä &&": 1009,
      "';ÄŠ": 1010,
      "ms": 1011,
      "Ä been": 1012,
      "Ä te": 1013,
      "ml": 1014,
      "co": 1015,
      "nc": 1016,
      "ervice": 1017,
      "Ä %": 1018,
      "**ÄŠ": 1019,
      "ann": 1020,
      "ade": 1021,
      "ÄŠÄŠÄŠÄŠ": 1022,
      "lock": 1023,
      "const": 1024,
      "ponse": 1025,
      "Ä sup": 1026,
      "++": 1027,
      "date": 1028,
      "Ä acc": 1029,
      "Ä had": 1030,
      "Ä bu": 1031,
      "Ä Re": 1032,
      "Ä were": 1033,
      "Ä file": 1034,
      "Ä would": 1035,
      "Ä Ã¢Ä¢Ä¾": 1036,
      "ven": 1037,
      "iss": 1038,
      "Ä our": 1039,
      "class": 1040,
      "raw": 1041,
      "Ä year": 1042,
      "Data": 1043,
      "Ä val": 1044,
      "Ä some": 1045,
      "fter": 1046,
      "ys": 1047,
      "Ä ///": 1048,
      "round": 1049,
      "view": 1050,
      "Ä pe": 1051,
      "Ä there": 1052,
      "Ä said": 1053,
      "du": 1054,
      "of": 1055,
      "line": 1056,
      "/*": 1057,
      "duct": 1058,
      "Ä her": 1059,
      "Ä Ä Ä Ä Ä Ä Ä Ä Ä Ä Ä Ä Ä ": 1060,
      "Res": 1061,
      "Ä co": 1062,
      "Ä comm": 1063,
      "ise": 1064,
      "min": 1065,
      "Ä Ä Ä Ä ÄŠ": 1066,
      "#include": 1067,
      "ethod": 1068,
      ".P": 1069,
      "ute": 1070,
      "Ä ass": 1071,
      "Int": 1072,
      "ask": 1073,
      "loc": 1074,
      "Ä like": 1075,
      "ody": 1076,
      "Ä let": 1077,
      "load": 1078,
      "Ä am": 1079,
      "rol": 1080,
      "Ä gr": 1081,
      "yp": 1082,
      "Ä also": 1083,
      "Ä It": 1084,
      "url": 1085,
      "ific": 1086,
      "ors": 1087,
      "_P": 1088,
      "_n": 1089,
      "igh": 1090,
      "Ä than": 1091,
      "Com": 1092,
      "AN": 1093,
      "UL": 1094,
      "ating": 1095,
      "Ä This": 1096,
      "ref": 1097,
      "_S": 1098,
      "Ä static": 1099,
      "roll": 1100,
      "Ä just": 1101,
      "Ä result": 1102,
      "ian": 1103,
      "idth": 1104,
      "Ä them": 1105,
      "));ÄŠ": 1106,
      "der": 1107,
      "reak": 1108,
      "Con": 1109,
      "://": 1110,
      "ule": 1111,
      "...": 1112,
      "arch": 1113,
      "ement": 1114,
      "Ä <<": 1115,
      "ush": 1116,
      "ense": 1117,
      "arr": 1118,
      "Ä into": 1119,
      "cess": 1120,
      "amp": 1121,
      "ied": 1122,
      "ument": 1123,
      "Ä \\": 1124,
      "],": 1125,
      "wo": 1126,
      "als": 1127,
      "Ä what": 1128,
      "anc": 1129,
      "Value": 1130,
      "='": 1131,
      "olum": 1132,
      "Ä pos": 1133,
      "ages": 1134,
      "ayer": 1135,
      "Ä sc": 1136,
      "ues": 1137,
      "\")ÄŠ": 1138,
      "_T": 1139,
      "Ä list": 1140,
      "(s": 1141,
      "Ä case": 1142,
      "Ch": 1143,
      "Ä‰Ä‰Ä‰Ä‰Ä‰": 1144,
      "////////": 1145,
      "ponent": 1146,
      "Ä z": 1147,
      "Ä kn": 1148,
      "let": 1149,
      "DE": 1150,
      "red": 1151,
      "Ä fe": 1152,
      "Ä },ÄŠ": 1153,
      "Ä ,": 1154,
      "(t": 1155,
      "Ä first": 1156,
      "');ÄŠ": 1157,
      "word": 1158,
      "Ä import": 1159,
      "Ä act": 1160,
      "Ä char": 1161,
      "CT": 1162,
      "Ä Tr": 1163,
      "ople": 1164,
      "={": 1165,
      "Ä‰f": 1166,
      "ient": 1167,
      "cent": 1168,
      ".j": 1169,
      "lection": 1170,
      "))ÄŠ": 1171,
      "Ä only": 1172,
      "Ä print": 1173,
      "mer": 1174,
      ".W": 1175,
      "ock": 1176,
      "Ä --": 1177,
      "Text": 1178,
      "Ä op": 1179,
      "ank": 1180,
      "Ä its": 1181,
      "Ä back": 1182,
      "[\"": 1183,
      "Ä need": 1184,
      "Ä cl": 1185,
      "Ä sub": 1186,
      "Ä la": 1187,
      "((": 1188,
      ".\"": 1189,
      "Object": 1190,
      "Ä start": 1191,
      "file": 1192,
      "(self": 1193,
      "ner": 1194,
      "ey": 1195,
      "Ä user": 1196,
      "Ä ent": 1197,
      "Ä Com": 1198,
      "its": 1199,
      "Ä Con": 1200,
      "ouble": 1201,
      "ower": 1202,
      "item": 1203,
      "very": 1204,
      "Ä We": 1205,
      "lick": 1206,
      "Ä Q": 1207,
      "php": 1208,
      "ttp": 1209,
      "':": 1210,
      "ics": 1211,
      "Ä under": 1212,
      "Ä *ÄŠ": 1213,
      ".L": 1214,
      ");": 1215,
      "ices": 1216,
      "Ä reg": 1217,
      ")ÄÄŠ": 1218,
      "Ä‰public": 1219,
      "SS": 1220,
      "Ä then": 1221,
      "reat": 1222,
      "ious": 1223,
      ".G": 1224,
      "ek": 1225,
      "irect": 1226,
      "heck": 1227,
      "cript": 1228,
      "ning": 1229,
      "Ä Un": 1230,
      "Ä may": 1231,
      "Ä Wh": 1232,
      "Bo": 1233,
      "Item": 1234,
      "struct": 1235,
      ".st": 1236,
      "ream": 1237,
      "ible": 1238,
      "loat": 1239,
      "Ä org": 1240,
      "und": 1241,
      "sum": 1242,
      "_in": 1243,
      "../": 1244,
      "_M": 1245,
      "Ä how": 1246,
      "rite": 1247,
      "'ÄŠ": 1248,
      "To": 1249,
      "ww": 1250,
      "Ä people": 1251,
      "index": 1252,
      ".n": 1253,
      "http": 1254,
      "(m": 1255,
      "ector": 1256,
      "Ä ind": 1257,
      "Ä jav": 1258,
      "],ÄŠ": 1259,
      "Ä He": 1260,
      "_st": 1261,
      "ful": 1262,
      "ole": 1263,
      "){ÄŠ": 1264,
      "Ä should": 1265,
      "opy": 1266,
      "elp": 1267,
      "ier": 1268,
      "_name": 1269,
      "erson": 1270,
      "ION": 1271,
      "ote": 1272,
      "Ä test": 1273,
      "Ä bet": 1274,
      "rror": 1275,
      "ular": 1276,
      "Ã£Ä¢": 1277,
      "Ä Ã": 1278,
      "bs": 1279,
      "ting": 1280,
      "Ä make": 1281,
      "Tr": 1282,
      "Ä after": 1283,
      "arget": 1284,
      "RO": 1285,
      "olumn": 1286,
      "rc": 1287,
      "_re": 1288,
      "define": 1289,
      "Ä right": 1290,
      "right": 1291,
      "day": 1292,
      "Ä long": 1293,
      "[]": 1294,
      "(p": 1295,
      "td": 1296,
      "cond": 1297,
      "Ä Pro": 1298,
      "Ä rem": 1299,
      "ptions": 1300,
      "vid": 1301,
      ".g": 1302,
      "Ä ext": 1303,
      "Ä __": 1304,
      "')ÄŠ": 1305,
      "pace": 1306,
      "mp": 1307,
      "Ä min": 1308,
      "stance": 1309,
      "air": 1310,
      "action": 1311,
      "wh": 1312,
      "type": 1313,
      "util": 1314,
      "ait": 1315,
      "<?": 1316,
      "IC": 1317,
      "text": 1318,
      "Ä ph": 1319,
      "Ä fl": 1320,
      ".M": 1321,
      "ccess": 1322,
      "br": 1323,
      "fore": 1324,
      "ersion": 1325,
      "),ÄŠ": 1326,
      ".re": 1327,
      "ateg": 1328,
      "Ä loc": 1329,
      "ins": 1330,
      "-s": 1331,
      "trib": 1332,
      "Ä Int": 1333,
      "Ä array": 1334,
      ",\"": 1335,
      "Pro": 1336,
      "(c": 1337,
      "ession": 1338,
      ">ÄŠÄŠ": 1339,
      "Ä she": 1340,
      "\"]": 1341,
      "aph": 1342,
      "Ä exp": 1343,
      "erty": 1344,
      "Ä Se": 1345,
      "Ä par": 1346,
      "unc": 1347,
      "ET": 1348,
      "Ä read": 1349,
      "print": 1350,
      "Ä rel": 1351,
      "Ä form": 1352,
      "Ä dr": 1353,
      "Exception": 1354,
      "input": 1355,
      "Ä trans": 1356,
      "########": 1357,
      "order": 1358,
      "By": 1359,
      "Ä aw": 1360,
      "ities": 1361,
      "uff": 1362,
      "play": 1363,
      ".add": 1364,
      "Ä Ã¢Ä¢Äµ": 1365,
      "Ä want": 1366,
      "Ä comp": 1367,
      "ments": 1368,
      "Ä ||": 1369,
      "az": 1370,
      "be": 1371,
      "Ä number": 1372,
      "Ä require": 1373,
      "Ä Ex": 1374,
      "Ä col": 1375,
      "Ä key": 1376,
      "ember": 1377,
      "Ä two": 1378,
      "Ä size": 1379,
      "Ä where": 1380,
      "UT": 1381,
      "result": 1382,
      "Ä Ä Ä Ä Ä Ä Ä Ä Ä Ä Ä Ä Ä Ä Ä Ä Ä Ä Ä Ä Ä Ä Ä Ä Ä Ä Ä Ä Ä Ä Ä ": 1383,
      "ough": 1384,
      "orld": 1385,
      "ood": 1386,
      "uch": 1387,
      "ative": 1388,
      "ger": 1389,
      "arent": 1390,
      "Ä /*": 1391,
      "Ä arg": 1392,
      "Ä while": 1393,
      "(this": 1394,
      "Ä rec": 1395,
      "Ä dif": 1396,
      "State": 1397,
      "Ä spec": 1398,
      "ride": 1399,
      "_F": 1400,
      "Ä look": 1401,
      "AM": 1402,
      "ility": 1403,
      "eter": 1404,
      "Ã¢Ä¢Ä»t": 1405,
      "ÄŠÄŠÄŠ": 1406,
      "ayout": 1407,
      "--------------------------------": 1408,
      "ager": 1409,
      "Ä could": 1410,
      "Ä br": 1411,
      "ends": 1412,
      "ures": 1413,
      "Ä know": 1414,
      "ets": 1415,
      "Ä If": 1416,
      "Ä Sh": 1417,
      ".w": 1418,
      "back": 1419,
      "Ä ser": 1420,
      "Ä +=": 1421,
      "Ä fr": 1422,
      "());ÄŠ": 1423,
      "Ä hand": 1424,
      "Ind": 1425,
      "ULL": 1426,
      "Im": 1427,
      "();ÄŠÄŠ": 1428,
      "Ä most": 1429,
      "Ä try": 1430,
      "Ä now": 1431,
      "rough": 1432,
      ">ÄÄŠ": 1433,
      "ackage": 1434,
      "Ä him": 1435,
      "._": 1436,
      "ify": 1437,
      "Ä break": 1438,
      "Ä );ÄŠ": 1439,
      "ren": 1440,
      "#define": 1441,
      "itt": 1442,
      "Ä ap": 1443,
      "Ä‰c": 1444,
      "(n": 1445,
      "Ä You": 1446,
      ":ÄŠÄŠ": 1447,
      "-m": 1448,
      "Ä every": 1449,
      "ustom": 1450,
      "lient": 1451,
      "ocument": 1452,
      "cription": 1453,
      "Error": 1454,
      "-b": 1455,
      "ÃÂ¾": 1456,
      "][": 1457,
      "trans": 1458,
      "Ä point": 1459,
      "Ä std": 1460,
      "Ä fil": 1461,
      "Time": 1462,
      "Ä mod": 1463,
      "Ä ->": 1464,
      "Ä error": 1465,
      "ah": 1466,
      "Ä text": 1467,
      "roller": 1468,
      "lose": 1469,
      "ql": 1470,
      "Ä pol": 1471,
      "></": 1472,
      "Ä show": 1473,
      "User": 1474,
      "ased": 1475,
      "Ä {ÄŠÄŠ": 1476,
      "Ä find": 1477,
      "ÃÂ°": 1478,
      "ED": 1479,
      "span": 1480,
      "enu": 1481,
      "Ä current": 1482,
      "Ä used": 1483,
      "cept": 1484,
      "clud": 1485,
      "Ä play": 1486,
      "Ä log": 1487,
      "ution": 1488,
      "fl": 1489,
      "Ä see": 1490,
      "indows": 1491,
      "Ä help": 1492,
      "Ä these": 1493,
      "Ä pass": 1494,
      "Ä down": 1495,
      "Ä even": 1496,
      "ason": 1497,
      "uild": 1498,
      "from": 1499,
      "(d": 1500,
      "Ä bl": 1501,
      "label": 1502,
      "else": 1503,
      "ÃÂµ": 1504,
      "Ä (!": 1505,
      "ized": 1506,
      "(),": 1507,
      "Ä ob": 1508,
      "Ä item": 1509,
      "ump": 1510,
      "UR": 1511,
      "orn": 1512,
      "Ä don": 1513,
      "Se": 1514,
      "man": 1515,
      "ample": 1516,
      "tn": 1517,
      "================": 1518,
      "He": 1519,
      "gram": 1520,
      "Ä did": 1521,
      "wn": 1522,
      "_h": 1523,
      "iver": 1524,
      "Ä sm": 1525,
      "Ä through": 1526,
      "Ä An": 1527,
      "che": 1528,
      "Ä inv": 1529,
      "ouse": 1530,
      "Ä es": 1531,
      "Ä New": 1532,
      "export": 1533,
      "mary": 1534,
      "uto": 1535,
      "ler": 1536,
      "Ä last": 1537,
      "Ä event": 1538,
      "try": 1539,
      "Ã¯Â¼": 1540,
      "ily": 1541,
      "igned": 1542,
      "ines": 1543,
      "ollow": 1544,
      "icense": 1545,
      "sole": 1546,
      "lear": 1547,
      "(int": 1548,
      "Ä again": 1549,
      "Ä high": 1550,
      "html": 1551,
      "Index": 1552,
      "uthor": 1553,
      "Ä /**ÄŠ": 1554,
      "Ä line": 1555,
      "Event": 1556,
      "_D": 1557,
      "Ä does": 1558,
      "itial": 1559,
      "Ä cr": 1560,
      "ars": 1561,
      "Ä tem": 1562,
      "cause": 1563,
      "face": 1564,
      "Ä `": 1565,
      "_A": 1566,
      "Button": 1567,
      "ature": 1568,
      "ected": 1569,
      "ES": 1570,
      "ister": 1571,
      "Ä‰ÄŠ": 1572,
      "Ä before": 1573,
      "ale": 1574,
      "other": 1575,
      "Ä because": 1576,
      "roid": 1577,
      "Ä ed": 1578,
      "ik": 1579,
      "reg": 1580,
      "Ä De": 1581,
      "Ä dist": 1582,
      "},ÄŠ": 1583,
      "Ä state": 1584,
      "Ä cons": 1585,
      "rint": 1586,
      "att": 1587,
      "Ä here": 1588,
      "ined": 1589,
      "Ä final": 1590,
      "Ä \"\"": 1591,
      "Key": 1592,
      "LO": 1593,
      "Ä del": 1594,
      "pty": 1595,
      "thing": 1596,
      "Ä And": 1597,
      "Ä run": 1598,
      "Ä X": 1599,
      "ym": 1600,
      ".app": 1601,
      "Ä very": 1602,
      "ces": 1603,
      "_N": 1604,
      "ared": 1605,
      "ward": 1606,
      "list": 1607,
      "ited": 1608,
      "olog": 1609,
      "itch": 1610,
      "Box": 1611,
      "ife": 1612,
      "Ä ac": 1613,
      "Ä model": 1614,
      "Ä mon": 1615,
      "Ä way": 1616,
      "lete": 1617,
      "Ä call": 1618,
      "Ä att": 1619,
      "Ä cal": 1620,
      "vert": 1621,
      "Ä dec": 1622,
      "lease": 1623,
      "oun": 1624,
      "Ä });ÄŠ": 1625,
      "fr": 1626,
      "formation": 1627,
      "etail": 1628,
      "Ä num": 1629,
      "aj": 1630,
      "query": 1631,
      "Ä well": 1632,
      "Ä object": 1633,
      "Ä As": 1634,
      "Ä years": 1635,
      "Color": 1636,
      "IS": 1637,
      "Ä default": 1638,
      "Wh": 1639,
      "Ä ins": 1640,
      "aint": 1641,
      "Ä java": 1642,
      "Ä sim": 1643,
      "Ä Ar": 1644,
      "mon": 1645,
      "til": 1646,
      "();ÄÄŠ": 1647,
      "):": 1648,
      "Set": 1649,
      "atter": 1650,
      "Ä view": 1651,
      "Ä pres": 1652,
      "array": 1653,
      "We": 1654,
      "At": 1655,
      "Ä bel": 1656,
      "Ä many": 1657,
      "Man": 1658,
      "ender": 1659,
      "Ä being": 1660,
      "Ä good": 1661,
      "Ä‰Ä‰Ä‰Ä‰Ä‰Ä‰": 1662,
      "ational": 1663,
      "ware": 1664,
      ".log": 1665,
      "{ÄÄŠ": 1666,
      "Ä using": 1667,
      "_B": 1668,
      "Ä :=": 1669,
      "_w": 1670,
      "ists": 1671,
      "lish": 1672,
      "Ä stud": 1673,
      "Ä Al": 1674,
      "Ä gu": 1675,
      "config": 1676,
      "uring": 1677,
      "time": 1678,
      "oken": 1679,
      "amespace": 1680,
      "Ä request": 1681,
      "Ä child": 1682,
      "Ä Ãƒ": 1683,
      "lob": 1684,
      "Ä param": 1685,
      "Ä }ÄÄŠ": 1686,
      "Ä echo": 1687,
      "function": 1688,
      "********************************": 1689,
      "ps": 1690,
      "Element": 1691,
      "alk": 1692,
      "lication": 1693,
      "by": 1694,
      "Size": 1695,
      "rawing": 1696,
      "Ä person": 1697,
      "Ä Ä Ä Ä Ä Ä Ä Ä Ä Ä Ä Ä Ä Ä Ä Ä Ä ": 1698,
      "\\n": 1699,
      "object": 1700,
      "ince": 1701,
      "En": 1702,
      "File": 1703,
      "uf": 1704,
      "ffect": 1705,
      "AC": 1706,
      "Ä style": 1707,
      "summary": 1708,
      "Ä que": 1709,
      "_r": 1710,
      "Ä ($": 1711,
      "Model": 1712,
      "ident": 1713,
      "Ä method": 1714,
      "IL": 1715,
      "ott": 1716,
      "less": 1717,
      "ING": 1718,
      "Ä ()": 1719,
      "Ä expect": 1720,
      "ync": 1721,
      "package": 1722,
      "urs": 1723,
      "Ä prot": 1724,
      "./": 1725,
      "pre": 1726,
      "Ä )ÄŠ": 1727,
      "ma": 1728,
      "Ä sur": 1729,
      "Ä found": 1730,
      "Info": 1731,
      "par": 1732,
      "imes": 1733,
      ".e": 1734,
      "ains": 1735,
      "Ä post": 1736,
      "-d": 1737,
      "olean": 1738,
      "Ä sl": 1739,
      "PE": 1740,
      "Ä such": 1741,
      "select": 1742,
      "ainer": 1743,
      "Ä think": 1744,
      "Ä differ": 1745,
      ".r": 1746,
      "/**ÄŠ": 1747,
      "FF": 1748,
      "ool": 1749,
      "plate": 1750,
      "qual": 1751,
      "Ä For": 1752,
      "Ä much": 1753,
      "uc": 1754,
      "(new": 1755,
      "odule": 1756,
      "Ä som": 1757,
      "Ä http": 1758,
      "Ä List": 1759,
      "Ä count": 1760,
      "Ä inst": 1761,
      "char": 1762,
      "mit": 1763,
      ".id": 1764,
      "aking": 1765,
      "Ä gener": 1766,
      "px": 1767,
      "vice": 1768,
      "_data": 1769,
      "Ä NULL": 1770,
      "}ÄÄŠ": 1771,
      "idd": 1772,
      "Ã£Ä¢Ä¤": 1773,
      "Ä med": 1774,
      "org": 1775,
      "ider": 1776,
      "ache": 1777,
      "work": 1778,
      "Ä check": 1779,
      "ween": 1780,
      "Ä ((": 1781,
      "the": 1782,
      "ants": 1783,
      "><": 1784,
      ".B": 1785,
      "-c": 1786,
      "Ä open": 1787,
      "Ä est": 1788,
      "Ä Ä Ä Ä Ä Ä Ä Ä ÄŠ": 1789,
      "Ä next": 1790,
      "IM": 1791,
      "Ã‘Ä¤": 1792,
      "OT": 1793,
      "ÃƒÂ³": 1794,
      "Ä follow": 1795,
      "content": 1796,
      "Ä Ä Ä Ä Ä Ä Ä Ä Ä Ä Ä Ä ": 1797,
      "Ä includ": 1798,
      "HE": 1799,
      "Ä Res": 1800,
      "Ä href": 1801,
      "ÃÂ¸": 1802,
      "Ä car": 1803,
      "ypes": 1804,
      "image": 1805,
      "Un": 1806,
      "Ä bool": 1807,
      "AD": 1808,
      "Ä game": 1809,
      ".Form": 1810,
      "rows": 1811,
      "*/": 1812,
      "velop": 1813,
      ".Drawing": 1814,
      "Ä path": 1815,
      "ision": 1816,
      "Ä each": 1817,
      "Ä Pl": 1818,
      "_type": 1819,
      "Path": 1820,
      "nection": 1821,
      "Ä av": 1822,
      "').": 1823,
      "Ä support": 1824,
      "ENT": 1825,
      "rem": 1826,
      "\").": 1827,
      "Ä own": 1828,
      "Ä cor": 1829,
      "count": 1830,
      "miss": 1831,
      "ually": 1832,
      "Ä mem": 1833,
      "std": 1834,
      "ience": 1835,
      "search": 1836,
      "\"ÄŠÄŠ": 1837,
      "Form": 1838,
      "Ä sex": 1839,
      "ename": 1840,
      "Ä sign": 1841,
      "Ä et": 1842,
      "Ä Ä Ä Ä Ä Ä Ä Ä Ä Ä ": 1843,
      "','": 1844,
      "Ä App": 1845,
      "Ä those": 1846,
      "off": 1847,
      "Ä err": 1848,
      "Ä system": 1849,
      "Ä best": 1850,
      "code": 1851,
      "Ä same": 1852,
      "Ä di": 1853,
      "uss": 1854,
      "Ä create": 1855,
      "ather": 1856,
      "Array": 1857,
      ".in": 1858,
      "fe": 1859,
      "Service": 1860,
      "UN": 1861,
      "ats": 1862,
      "Ä Z": 1863,
      "alth": 1864,
      "Ä made": 1865,
      "true": 1866,
      "AB": 1867,
      "Ä mark": 1868,
      "rid": 1869,
      "ified": 1870,
      ",ÄÄŠ": 1871,
      "yn": 1872,
      "press": 1873,
      "Ä group": 1874,
      "Ä fin": 1875,
      "Ä License": 1876,
      "Field": 1877,
      "eger": 1878,
      "Ä world": 1879,
      "iness": 1880,
      "ty": 1881,
      "Ä process": 1882,
      "(b": 1883,
      "Ä cre": 1884,
      "arn": 1885,
      "ives": 1886,
      "Ä main": 1887,
      "ideo": 1888,
      "_g": 1889,
      "AG": 1890,
      "valid": 1891,
      "img": 1892,
      "PI": 1893,
      "Ä color": 1894,
      "Ä report": 1895,
      "Ä take": 1896,
      "rib": 1897,
      "OM": 1898,
      "Ä day": 1899,
      "Request": 1900,
      "Ä sk": 1901,
      "bers": 1902,
      "Ä‰s": 1903,
      ".Add": 1904,
      "oot": 1905,
      "Image": 1906,
      "Ä comple": 1907,
      "ollection": 1908,
      "Ä top": 1909,
      "Ä free": 1910,
      "AS": 1911,
      "De": 1912,
      "Ä On": 1913,
      "IG": 1914,
      "eta": 1915,
      "Date": 1916,
      "Ä action": 1917,
      "Over": 1918,
      "itor": 1919,
      "Ä Ä Ä Ä Ä Ä Ä Ä Ä Ä Ä Ä Ä Ä Ä Ä Ä Ä Ä Ä Ä Ä Ä Ä Ä Ä Ä Ä Ä Ä Ä Ä Ä Ä Ä ": 1920,
      "not": 1921,
      "Ä index": 1922,
      "her": 1923,
      "icon": 1924,
      "On": 1925,
      ";ÄÄŠÄÄŠ": 1926,
      "ivity": 1927,
      "mand": 1928,
      ".Windows": 1929,
      "OL": 1930,
      "Ä real": 1931,
      "Ä max": 1932,
      "land": 1933,
      "....": 1934,
      "raph": 1935,
      "Ä build": 1936,
      "leg": 1937,
      "assword": 1938,
      "?ÄŠÄŠ": 1939,
      "Ã¢Ä¢Â¦": 1940,
      "ook": 1941,
      "uck": 1942,
      "Ä message": 1943,
      "test": 1944,
      "ivers": 1945,
      "Ä input": 1946,
      "Ä art": 1947,
      "Ä between": 1948,
      "Get": 1949,
      "enter": 1950,
      "ground": 1951,
      "ene": 1952,
      "ÃƒÂ¡": 1953,
      ".length": 1954,
      "Node": 1955,
      "(i": 1956,
      "Class": 1957,
      "for": 1958,
      "Ä Ã¢Ä¢Ä¶": 1959,
      "ten": 1960,
      "oin": 1961,
      "Ä ke": 1962,
      "ui": 1963,
      "Ä IN": 1964,
      "Ä table": 1965,
      "sub": 1966,
      "Ä Le": 1967,
      "Ä head": 1968,
      "Ä must": 1969,
      "////////////////": 1970,
      ".util": 1971,
      "Context": 1972,
      "Ä order": 1973,
      "Ä mov": 1974,
      "over": 1975,
      "Ä contin": 1976,
      "Ä say": 1977,
      "static": 1978,
      ".Text": 1979,
      "Ä className": 1980,
      "pany": 1981,
      "Ä ter": 1982,
      "head": 1983,
      "rg": 1984,
      "Ä product": 1985,
      "This": 1986,
      ".Ã¢Ä¢Ä¿": 1987,
      "Ä But": 1988,
      "loy": 1989,
      "Ä double": 1990,
      "sg": 1991,
      "Ä place": 1992,
      ".x": 1993,
      "message": 1994,
      "Ä information": 1995,
      "private": 1996,
      "Ä oper": 1997,
      "ced": 1998,
      "db": 1999,
      "\"></": 2000,
      "Param": 2001,
      "icle": 2002,
      "Ä week": 2003,
      "Ä prop": 2004,
      "table": 2005,
      "idget": 2006,
      "place": 2007,
      "Prop": 2008,
      "Ä All": 2009,
      "els": 2010,
      "box": 2011,
      ".ÄŠÄŠÄŠÄŠ": 2012,
      ".R": 2013,
      "Ä To": 2014,
      "iter": 2015,
      "Sh": 2016,
      "uration": 2017,
      "older": 2018,
      "_list": 2019,
      "come": 2020,
      "Ä sw": 2021,
      "ization": 2022,
      "Ä‰for": 2023,
      "bl": 2024,
      "Ä program": 2025,
      "(e": 2026,
      "ape": 2027,
      "check": 2028,
      ".Forms": 2029,
      "Ä und": 2030,
      "ategory": 2031,
      "ags": 2032,
      "Ä response": 2033,
      "US": 2034,
      "request": 2035,
      "Ä struct": 2036,
      "escription": 2037,
      "Ä code": 2038,
      "_H": 2039,
      "uffer": 2040,
      "Ä without": 2041,
      "lobal": 2042,
      "Manager": 2043,
      "ilter": 2044,
      "PO": 2045,
      "Ä‰this": 2046,
      "option": 2047,
      "Ä sol": 2048,
      "Ä ===": 2049,
      "akes": 2050,
      "Controller": 2051,
      "Message": 2052,
      "Ä ref": 2053,
      "ever": 2054,
      "Ä So": 2055,
      "aining": 2056,
      ".append": 2057,
      "Ä still": 2058,
      "Ä provid": 2059,
      "Ä assert": 2060,
      "med": 2061,
      "Ä cap": 2062,
      "usiness": 2063,
      "Ä rep": 2064,
      "tings": 2065,
      "ved": 2066,
      ".N": 2067,
      "api": 2068,
      "OD": 2069,
      "Ä field": 2070,
      "iven": 2071,
      "oto": 2072,
      "Ã¢Ä¢Ä¾": 2073,
      "col": 2074,
      "(x": 2075,
      "ght": 2076,
      "Result": 2077,
      "Code": 2078,
      ".is": 2079,
      "link": 2080,
      "Ä cour": 2081,
      "An": 2082,
      "Ä team": 2083,
      "Ä‰int": 2084,
      "ift": 2085,
      "Ä second": 2086,
      "Ä going": 2087,
      "Ä range": 2088,
      "_E": 2089,
      "ness": 2090,
      "Ä fam": 2091,
      "Ä nil": 2092,
      "Ä Cont": 2093,
      "ailable": 2094,
      "utes": 2095,
      "atab": 2096,
      "Ä fact": 2097,
      "Ä vis": 2098,
      "(&": 2099,
      "Ä AN": 2100,
      "Al": 2101,
      "title": 2102,
      "Ä android": 2103,
      "CE": 2104,
      "\\\"": 2105,
      "irt": 2106,
      "Ä writ": 2107,
      "ÃÂ½": 2108,
      "Ä‰m": 2109,
      "ftware": 2110,
      "ond": 2111,
      "Ä ret": 2112,
      "osition": 2113,
      "Ä home": 2114,
      "Ä left": 2115,
      "args": 2116,
      "meric": 2117,
      "Ä direct": 2118,
      "oci": 2119,
      "Pl": 2120,
      "As": 2121,
      "ret": 2122,
      "ado": 2123,
      "Of": 2124,
      "chn": 2125,
      "Ä Get": 2126,
      "ee": 2127,
      "ross": 2128,
      "();": 2129,
      "____": 2130,
      ".ph": 2131,
      "It": 2132,
      "oute": 2133,
      "Ä exper": 2134,
      "chool": 2135,
      "www": 2136,
      "},": 2137,
      "Ä allow": 2138,
      "Ä Ã‚": 2139,
      "())": 2140,
      "size": 2141,
      "ism": 2142,
      "ai": 2143,
      "tract": 2144,
      "ane": 2145,
      "...ÄŠÄŠ": 2146,
      "context": 2147,
      "Ä beg": 2148,
      "CH": 2149,
      "Ä page": 2150,
      "hip": 2151,
      "no": 2152,
      "core": 2153,
      "sp": 2154,
      "Ä different": 2155,
      "iable": 2156,
      "Ä Me": 2157,
      "_IN": 2158,
      "button": 2159,
      "Ä Is": 2160,
      "ervices": 2161,
      "Ä ca": 2162,
      "Ä around": 2163,
      "App": 2164,
      "ration": 2165,
      "Ä rece": 2166,
      "Ä really": 2167,
      "Ä image": 2168,
      "Ä target": 2169,
      "Ä dep": 2170,
      "opyright": 2171,
      "tra": 2172,
      "ingle": 2173,
      "ital": 2174,
      "Layout": 2175,
      "Ä both": 2176,
      "Override": 2177,
      "arm": 2178,
      "=>": 2179,
      "aterial": 2180,
      "iled": 2181,
      "Ä put": 2182,
      "Qu": 2183,
      "Ã‘Ä¢": 2184,
      "ung": 2185,
      "map": 2186,
      "Ä‰Ä‰Ä‰Ä‰Ä‰Ä‰Ä‰Ä‰": 2187,
      "Ä level": 2188,
      "Component": 2189,
      "book": 2190,
      "creen": 2191,
      "_RE": 2192,
      "Ä config": 2193,
      "Ã£Ä£": 2194,
      "Or": 2195,
      ".data": 2196,
      "Ä document": 2197,
      "\",\"": 2198,
      "tribute": 2199,
      "ux": 2200,
      "Log": 2201,
      "ference": 2202,
      "post": 2203,
      "_e": 2204,
      "Ä local": 2205,
      "andom": 2206,
      "assert": 2207,
      "Val": 2208,
      "lected": 2209,
      "ina": 2210,
      "atabase": 2211,
      "Add": 2212,
      "Ä content": 2213,
      ".print": 2214,
      "signed": 2215,
      "ric": 2216,
      ".\"ÄŠÄŠ": 2217,
      "Ä fa": 2218,
      "!ÄŠÄŠ": 2219,
      "-f": 2220,
      "ived": 2221,
      "Ä quest": 2222,
      ".ex": 2223,
      "Ä float": 2224,
      "Ä develop": 2225,
      "ÃÂ¾Ã": 2226,
      "Map": 2227,
      "ading": 2228,
      "Ä poss": 2229,
      "UE": 2230,
      "namespace": 2231,
      "_O": 2232,
      "Ä‰b": 2233,
      ".Get": 2234,
      ">(": 2235,
      "json": 2236,
      "etails": 2237,
      "Ä too": 2238,
      "Ä extends": 2239,
      "Ä None": 2240,
      "Ä fore": 2241,
      "(String": 2242,
      "format": 2243,
      "Ä great": 2244,
      "inter": 2245,
      "cale": 2246,
      "Ã‘Ä£": 2247,
      "ron": 2248,
      "iving": 2249,
      "Ent": 2250,
      "ency": 2251,
      "xt": 2252,
      "oy": 2253,
      "Ä month": 2254,
      "Ä happ": 2255,
      "Ä super": 2256,
      "bar": 2257,
      "default": 2258,
      "_de": 2259,
      "ords": 2260,
      "ln": 2261,
      "({ÄŠ": 2262,
      "Ä Ind": 2263,
      "ases": 2264,
      "Ä title": 2265,
      "Ä context": 2266,
      "oh": 2267,
      "-p": 2268,
      "Em": 2269,
      "Ä met": 2270,
      "Test": 2271,
      "Ä life": 2272,
      "_v": 2273,
      "Ä US": 2274,
      "UI": 2275,
      "ocation": 2276,
      "md": 2277,
      "Ä [ÄŠ": 2278,
      "Ä ]": 2279,
      "sw": 2280,
      "Ä incre": 2281,
      "script": 2282,
      "ential": 2283,
      "ways": 2284,
      ".de": 2285,
      "Ä src": 2286,
      "Ä catch": 2287,
      "Ä Americ": 2288,
      "//ÄŠ": 2289,
      "Ä Ä Ä Ä Ä Ä Ä Ä Ä Ä Ä Ä Ä Ä ": 2290,
      "Ä pay": 2291,
      "plit": 2292,
      "Ã¢Ä¢Ä¶": 2293,
      "Ä coun": 2294,
      "obj": 2295,
      ".php": 2296,
      "Ä change": 2297,
      "ething": 2298,
      "'re": 2299,
      "aster": 2300,
      "los": 2301,
      "lation": 2302,
      "Ä Ä ÄŠ": 2303,
      "Le": 2304,
      "ÃƒÂ¤": 2305,
      "({": 2306,
      "ready": 2307,
      "Ä No": 2308,
      "Ä position": 2309,
      "Ä old": 2310,
      "Ä book": 2311,
      "abled": 2312,
      "bug": 2313,
      "Hand": 2314,
      "};ÄŠÄŠ": 2315,
      "isplay": 2316,
      "aving": 2317,
      "Ä gover": 2318,
      "Ä version": 2319,
      "System": 2320,
      "nect": 2321,
      "response": 2322,
      "Style": 2323,
      "Up": 2324,
      "angu": 2325,
      "Ä three": 2326,
      "init": 2327,
      "ero": 2328,
      "Ä law": 2329,
      "endif": 2330,
      "Ä base": 2331,
      "email": 2332,
      "(l": 2333,
      "_V": 2334,
      "Ä conf": 2335,
      "ATE": 2336,
      "Ä during": 2337,
      "tes": 2338,
      "Ä console": 2339,
      "Ä Pr": 2340,
      "Ä spe": 2341,
      "ves": 2342,
      "path": 2343,
      "ialog": 2344,
      "dition": 2345,
      "_to": 2346,
      "ards": 2347,
      "Ä against": 2348,
      "etwork": 2349,
      "Ä Ph": 2350,
      "_L": 2351,
      "cur": 2352,
      "imit": 2353,
      "With": 2354,
      "Ä power": 2355,
      "ium": 2356,
      "';ÄŠÄŠ": 2357,
      "Ä wom": 2358,
      "left": 2359,
      "ources": 2360,
      "atri": 2361,
      "Ä Im": 2362,
      "Ä Man": 2363,
      "orth": 2364,
      "${": 2365,
      "quals": 2366,
      "ese": 2367,
      "_size": 2368,
      "Ä iss": 2369,
      "otal": 2370,
      "-g": 2371,
      "ique": 2372,
      "rame": 2373,
      "Ä width": 2374,
      "erg": 2375,
      ")(": 2376,
      "ittle": 2377,
      "TR": 2378,
      "Ä They": 2379,
      "ences": 2380,
      "rl": 2381,
      "ons": 2382,
      "Ä label": 2383,
      ".y": 2384,
      "-t": 2385,
      "update": 2386,
      "anel": 2387,
      "sc": 2388,
      ".to": 2389,
      "Ä project": 2390,
      "ÃƒÂ¼": 2391,
      "Ä element": 2392,
      "Ä success": 2393,
      "Ä‰Ä‰ÄŠ": 2394,
      ".sh": 2395,
      "ram": 2396,
      "ched": 2397,
      "())ÄŠ": 2398,
      "Ä (ÄŠ": 2399,
      "Ä date": 2400,
      "Ä tot": 2401,
      "_ST": 2402,
      "All": 2403,
      "ification": 2404,
      "Ä‰var": 2405,
      "Ä tri": 2406,
      "chem": 2407,
      "my": 2408,
      "Ä big": 2409,
      "Ä Ad": 2410,
      "Ä At": 2411,
      "ots": 2412,
      "num": 2413,
      "Act": 2414,
      "Ä map": 2415,
      "era": 2416,
      "cope": 2417,
      ".$": 2418,
      ",Ã¢Ä¢Ä¿": 2419,
      "Ä pop": 2420,
      "Ä few": 2421,
      "Ä len": 2422,
      "uid": 2423,
      "eters": 2424,
      "ules": 2425,
      "ÃƒÅƒ": 2426,
      "source": 2427,
      "https": 2428,
      "Ä dem": 2429,
      "Ä ear": 2430,
      "################": 2431,
      "Ä match": 2432,
      "ories": 2433,
      "aces": 2434,
      "Ä Cl": 2435,
      "Ä node": 2436,
      "irc": 2437,
      "local": 2438,
      "unity": 2439,
      "};ÄŠ": 2440,
      "Ä another": 2441,
      "<<": 2442,
      "ogle": 2443,
      "Ä sit": 2444,
      "ework": 2445,
      "TE": 2446,
      ".I": 2447,
      "NS": 2448,
      "ology": 2449,
      "ought": 2450,
      ".Cont": 2451,
      ">>": 2452,
      "Ä care": 2453,
      "state": 2454,
      "Ä‰private": 2455,
      "Ä effect": 2456,
      "++)": 2457,
      "_file": 2458,
      "ending": 2459,
      "Line": 2460,
      "For": 2461,
      "ior": 2462,
      "Ä Sc": 2463,
      "Ä fun": 2464,
      ".Size": 2465,
      "Ä‰else": 2466,
      "])": 2467,
      "start": 2468,
      "vious": 2469,
      "Ä },": 2470,
      "ours": 2471,
      "Ä leg": 2472,
      "Ä service": 2473,
      "Ä since": 2474,
      "iron": 2475,
      "Label": 2476,
      "Ä non": 2477,
      "Ä los": 2478,
      "iction": 2479,
      "Ä full": 2480,
      "acter": 2481,
      "board": 2482,
      "gress": 2483,
      "Ä turn": 2484,
      "ither": 2485,
      ".size": 2486,
      "Ä body": 2487,
      "resh": 2488,
      "eturn": 2489,
      "(_": 2490,
      "yles": 2491,
      "ormal": 2492,
      "pi": 2493,
      "Ä something": 2494,
      "!--": 2495,
      "uint": 2496,
      "Ä produ": 2497,
      "Ä stand": 2498,
      "Ä proble": 2499,
      "Ä available": 2500,
      "mt": 2501,
      "Ä Bl": 2502,
      "Ä ...": 2503,
      "Ä block": 2504,
      "Input": 2505,
      "Ä keep": 2506,
      "Count": 2507,
      "open": 2508,
      "Ä ['": 2509,
      "Ä throw": 2510,
      "uilder": 2511,
      "Action": 2512,
      "Ä things": 2513,
      "True": 2514,
      "Ä url": 2515,
      "Ä Bo": 2516,
      "printf": 2517,
      "Ä red": 2518,
      "js": 2519,
      ".create": 2520,
      "Ä Or": 2521,
      "Status": 2522,
      "Instance": 2523,
      "Ä control": 2524,
      "Ä come": 2525,
      "Ä custom": 2526,
      "location": 2527,
      "model": 2528,
      "Ä ÄÄŠ": 2529,
      "Ä source": 2530,
      "Ä eas": 2531,
      ".out": 2532,
      "]ÄŠÄŠ": 2533,
      "oney": 2534,
      "Ä await": 2535,
      "Ä partic": 2536,
      "AP": 2537,
      "ublish": 2538,
      "odes": 2539,
      "_pro": 2540,
      "ply": 2541,
      "riter": 2542,
      "Ä prov": 2543,
      "Ä mill": 2544,
      "HT": 2545,
      "])ÄŠ": 2546,
      "Ä chang": 2547,
      "Ä ask": 2548,
      "Ä Ä Ä Ä Ä Ä Ä Ä Ä Ä Ä Ä Ä Ä Ä Ä Ä Ä Ä Ä Ä ": 2549,
      "Ä output": 2550,
      "Ä email": 2551,
      ".push": 2552,
      "Ä }ÄÄŠÄÄŠ": 2553,
      "ination": 2554,
      "atrix": 2555,
      "Table": 2556,
      "uccess": 2557,
      "]);ÄŠ": 2558,
      "Ä Ä Ä Ä Ä Ä Ä Ä Ä Ä Ä Ä Ä Ä Ä Ä Ä Ä Ä Ä Ä Ä Ä Ä Ä Ä Ä Ä Ä Ä Ä Ä Ä Ä Ä Ä Ä Ä Ä ": 2559,
      "Ä disc": 2560,
      "([": 2561,
      "Ä business": 2562,
      "height": 2563,
      ".html": 2564,
      "ta": 2565,
      "field": 2566,
      "Ä required": 2567,
      "_R": 2568,
      "Ä govern": 2569,
      "}ÄÄŠÄÄŠ": 2570,
      "lex": 2571,
      ".,": 2572,
      "Ä Set": 2573,
      "urch": 2574,
      "///": 2575,
      "ts": 2576,
      "af": 2577,
      "Ä might": 2578,
      "istory": 2579,
      "Str": 2580,
      "Ä never": 2581,
      "Response": 2582,
      "arse": 2583,
      "ada": 2584,
      "Ä How": 2585,
      "Ä *)": 2586,
      "Ä ;": 2587,
      "Ä hard": 2588,
      "Ad": 2589,
      "Ä intern": 2590,
      "used": 2591,
      "(data": 2592,
      "mod": 2593,
      "annel": 2594,
      "Ä np": 2595,
      "ugg": 2596,
      "Ä />ÄŠ": 2597,
      "Ä called": 2598,
      "body": 2599,
      "Ä cho": 2600,
      "(r": 2601,
      "_set": 2602,
      "ird": 2603,
      "Ä >=": 2604,
      "Ä };ÄŠ": 2605,
      "Ä options": 2606,
      "Ä Gener": 2607,
      "Ä height": 2608,
      "Point": 2609,
      "You": 2610,
      "ety": 2611,
      "Click": 2612,
      "Ä small": 2613,
      "Ä ide": 2614,
      "Ä access": 2615,
      "anguage": 2616,
      "Ä protected": 2617,
      "Ä job": 2618,
      "Ä There": 2619,
      "Def": 2620,
      "Ä address": 2621,
      "Ä uint": 2622,
      "Not": 2623,
      "oo": 2624,
      "aps": 2625,
      "<div": 2626,
      "ained": 2627,
      "atur": 2628,
      "Ä sum": 2629,
      "-w": 2630,
      "Ä Date": 2631,
      "Ä little": 2632,
      "Ä fri": 2633,
      "YPE": 2634,
      "Ä port": 2635,
      "eh": 2636,
      "pring": 2637,
      "_path": 2638,
      "Ä status": 2639,
      "aim": 2640,
      "bool": 2641,
      "Ä appe": 2642,
      "Ä os": 2643,
      ".name": 2644,
      "ension": 2645,
      "_G": 2646,
      "Ä update": 2647,
      "Config": 2648,
      "aff": 2649,
      "ERR": 2650,
      "Ä <=": 2651,
      "ately": 2652,
      "#if": 2653,
      "uction": 2654,
      "Ä Te": 2655,
      "Ä link": 2656,
      "Ä User": 2657,
      ".find": 2658,
      ".org": 2659,
      "me": 2660,
      "Ä given": 2661,
      "Out": 2662,
      "#endif": 2663,
      "Ä better": 2664,
      "Page": 2665,
      "Ä feel": 2666,
      "enn": 2667,
      "ML": 2668,
      "Ä already": 2669,
      "Ä including": 2670,
      "oogle": 2671,
      "ru": 2672,
      "ically": 2673,
      "prop": 2674,
      "lean": 2675,
      "outer": 2676,
      "Ä always": 2677,
      "ording": 2678,
      "If": 2679,
      "orage": 2680,
      "Ä parent": 2681,
      "vis": 2682,
      "Ä‰Ä‰Ä‰Ä‰Ä‰Ä‰Ä‰": 2683,
      "Ä got": 2684,
      "stand": 2685,
      "Ä less": 2686,
      "/s": 2687,
      "Ä Ass": 2688,
      "apt": 2689,
      "ired": 2690,
      "Ä Add": 2691,
      "Ä account": 2692,
      "ploy": 2693,
      "Ä der": 2694,
      "resent": 2695,
      "Ä lot": 2696,
      "Ä valid": 2697,
      "Ä‰d": 2698,
      "Ä bit": 2699,
      "ponents": 2700,
      "Ä following": 2701,
      "_ex": 2702,
      "SON": 2703,
      "Ä sure": 2704,
      "ocial": 2705,
      "Ä prom": 2706,
      "erties": 2707,
      "header": 2708,
      ".pro": 2709,
      "Ä boolean": 2710,
      "Ä search": 2711,
      "ken": 2712,
      "Ä orig": 2713,
      "Ä er": 2714,
      "Ed": 2715,
      "EM": 2716,
      "aut": 2717,
      "ling": 2718,
      "ality": 2719,
      "ById": 2720,
      "bed": 2721,
      "Ä‰case": 2722,
      "ether": 2723,
      "posit": 2724,
      "Ä invest": 2725,
      "Ä OR": 2726,
      "Ä says": 2727,
      "mission": 2728,
      "AME": 2729,
      "Ä temp": 2730,
      "oad": 2731,
      "Ä rest": 2732,
      "info": 2733,
      "Ä interest": 2734,
      "Arg": 2735,
      "Ä perform": 2736,
      "pons": 2737,
      "Ä View": 2738,
      "Ä ver": 2739,
      "lib": 2740,
      "(const": 2741,
      "Util": 2742,
      "Listener": 2743,
      "arge": 2744,
      "Ä mult": 2745,
      "Ä die": 2746,
      "Ä site": 2747,
      "../../": 2748,
      "EL": 2749,
      "Ä values": 2750,
      "Ä })ÄŠ": 2751,
      "pen": 2752,
      "No": 2753,
      "icro": 2754,
      "Ä beh": 2755,
      "Ä './": 2756,
      "acy": 2757,
      "rec": 2758,
      "()->": 2759,
      "Ä‰Ä Ä Ä ": 2760,
      "\"))": 2761,
      "Content": 2762,
      "_W": 2763,
      "plement": 2764,
      "Ä won": 2765,
      "Ä video": 2766,
      "adi": 2767,
      "point": 2768,
      "%%": 2769,
      "Ä gl": 2770,
      "erved": 2771,
      "viron": 2772,
      "IF": 2773,
      "uted": 2774,
      "Ã£Ä¥": 2775,
      "'m": 2776,
      "Ä cert": 2777,
      "Ä prof": 2778,
      "Ä cell": 2779,
      "ari": 2780,
      "Ä player": 2781,
      "ais": 2782,
      "Ä cost": 2783,
      "Ä hum": 2784,
      "(R": 2785,
      "Ä offic": 2786,
      "ks": 2787,
      ".text": 2788,
      "atures": 2789,
      "Ä total": 2790,
      "Ä */ÄŠÄŠ": 2791,
      "ope": 2792,
      "Ä stat": 2793,
      "UM": 2794,
      "Ä load": 2795,
      "ights": 2796,
      "Ä clear": 2797,
      "uro": 2798,
      "Ä techn": 2799,
      "upport": 2800,
      "IR": 2801,
      "Ä row": 2802,
      "Ä seem": 2803,
      "Ä q": 2804,
      "Ä short": 2805,
      "Ä Not": 2806,
      "ipp": 2807,
      "Group": 2808,
      "section": 2809,
      "max": 2810,
      "irl": 2811,
      "Ä override": 2812,
      "Ä company": 2813,
      "Ä done": 2814,
      "\");ÄÄŠ": 2815,
      "Ä gre": 2816,
      ".Re": 2817,
      "Ä belie": 2818,
      "rist": 2819,
      "Ä health": 2820,
      "ANT": 2821,
      "()ÄŠÄŠ": 2822,
      "Ä Be": 2823,
      ".value": 2824,
      "Ä Gr": 2825,
      "ottom": 2826,
      "Ä args": 2827,
      "PT": 2828,
      "status": 2829,
      "func": 2830,
      "uments": 2831,
      "-h": 2832,
      "Number": 2833,
      ":ÄÄŠ": 2834,
      "Ä Log": 2835,
      "erver": 2836,
      "Ä ),ÄŠ": 2837,
      "ament": 2838,
      "Ä obj": 2839,
      "inc": 2840,
      "Ä children": 2841,
      "icy": 2842,
      "IZ": 2843,
      "ands": 2844,
      "ably": 2845,
      "Ä distrib": 2846,
      "Ä cur": 2847,
      "erial": 2848,
      "Ä days": 2849,
      "reated": 2850,
      "rect": 2851,
      "-l": 2852,
      "irm": 2853,
      "idden": 2854,
      "omb": 2855,
      "Ä initial": 2856,
      ".js": 2857,
      "Ä Ã¢": 2858,
      "Query": 2859,
      "Ä online": 2860,
      "imal": 2861,
      ".con": 2862,
      "au": 2863,
      "Url": 2864,
      "control": 2865,
      "irection": 2866,
      "Ä instance": 2867,
      "ORT": 2868,
      "Ä Fr": 2869,
      "where": 2870,
      "Ä javax": 2871,
      "Ä organ": 2872,
      "apter": 2873,
      "Ä reason": 2874,
      "options": 2875,
      "Ä Mar": 2876,
      "(a": 2877,
      "Ä within": 2878,
      ".Ã¢Ä¢Ä¿ÄŠÄŠ": 2879,
      "ODE": 2880,
      "_DE": 2881,
      "admin": 2882,
      "ended": 2883,
      "Ä design": 2884,
      "Ä Data": 2885,
      "une": 2886,
      "Ä File": 2887,
      "root": 2888,
      "Ä cent": 2889,
      "Ä arr": 2890,
      "_add": 2891,
      "len": 2892,
      "page": 2893,
      ",'": 2894,
      "_str": 2895,
      "Ä bro": 2896,
      "ability": 2897,
      "outh": 2898,
      "/c": 2899,
      "pose": 2900,
      "irtual": 2901,
      "earch": 2902,
      "_url": 2903,
      "argin": 2904,
      "Http": 2905,
      "Ä school": 2906,
      "ava": 2907,
      "Ä consider": 2908,
      ".label": 2909,
      "Ä Array": 2910,
      "web": 2911,
      "opt": 2912,
      ".println": 2913,
      "ulation": 2914,
      "Ä func": 2915,
      "PL": 2916,
      "Ä \"\\": 2917,
      "Ä Text": 2918,
      "actory": 2919,
      "(function": 2920,
      "null": 2921,
      "Ä eng": 2922,
      "down": 2923,
      "Ä include": 2924,
      "Ä En": 2925,
      "Ä Dr": 2926,
      "Ä db": 2927,
      "!!": 2928,
      "side": 2929,
      "Ä init": 2930,
      "quired": 2931,
      "Ä She": 2932,
      "Column": 2933,
      "react": 2934,
      "Ä ann": 2935,
      "Ä stop": 2936,
      "Ä later": 2937,
      "Ä That": 2938,
      "ention": 2939,
      "df": 2940,
      "UG": 2941,
      "ILE": 2942,
      "Ä client": 2943,
      "raft": 2944,
      "ffer": 2945,
      "POST": 2946,
      "elper": 2947,
      "Ä love": 2948,
      "quote": 2949,
      "oud": 2950,
      "Ä json": 2951,
      "Ä able": 2952,
      "Ä men": 2953,
      "AX": 2954,
      "Ä Copyright": 2955,
      "ÃƒÂ¶": 2956,
      "avig": 2957,
      "req": 2958,
      "Client": 2959,
      "});ÄŠ": 2960,
      ".Com": 2961,
      "erc": 2962,
      "ilt": 2963,
      "pecial": 2964,
      "_com": 2965,
      "room": 2966,
      ".Name": 2967,
      "Ä give": 2968,
      "amb": 2969,
      "ike": 2970,
      "Ä condition": 2971,
      "client": 2972,
      "ators": 2973,
      ":\"": 2974,
      "Ä copy": 2975,
      "uture": 2976,
      "iversity": 2977,
      "ernal": 2978,
      "{{": 2979,
      "Ä Can": 2980,
      "ounc": 2981,
      "do": 2982,
      "Ä occ": 2983,
      "Ä appro": 2984,
      "thers": 2985,
      "ze": 2986,
      "Ä either": 2987,
      "Ä Fl": 2988,
      "Ä important": 2989,
      "Ä lead": 2990,
      "attr": 2991,
      "ART": 2992,
      "Equal": 2993,
      "Ä da": 2994,
      "etch": 2995,
      "entity": 2996,
      "Ä family": 2997,
      "adding": 2998,
      "Ä option": 2999,
      "Ä exist": 3000,
      "ica": 3001,
      "Ä Object": 3002,
      "'ve": 3003,
      "vers": 3004,
      "itional": 3005,
      "output": 3006,
      "Ä True": 3007,
      "Ä OF": 3008,
      "_time": 3009,
      "Ä offer": 3010,
      "Ä });ÄŠÄŠ": 3011,
      "HER": 3012,
      "egin": 3013,
      "\"\"": 3014,
      "Ä water": 3015,
      "Ä che": 3016,
      "Ä My": 3017,
      "ored": 3018,
      "Ä step": 3019,
      "ances": 3020,
      "CK": 3021,
      "AY": 3022,
      "Ã Â¸": 3023,
      "struction": 3024,
      "(C": 3025,
      "ouch": 3026,
      "Stream": 3027,
      "active": 3028,
      "ama": 3029,
      "Entity": 3030,
      "product": 3031,
      "(){ÄŠ": 3032,
      "Ä government": 3033,
      "Ä ID": 3034,
      "ajor": 3035,
      "And": 3036,
      "Ä display": 3037,
      "ÃÂ»": 3038,
      "Ä times": 3039,
      "Ä four": 3040,
      "Ä far": 3041,
      "Ä present": 3042,
      "Ä NS": 3043,
      "Ä \\ÄŠ": 3044,
      "uest": 3045,
      "Ä bas": 3046,
      "echo": 3047,
      "child": 3048,
      "ifier": 3049,
      "Handler": 3050,
      "Ä lib": 3051,
      "Property": 3052,
      "translation": 3053,
      "Ä room": 3054,
      "Ä once": 3055,
      "Ä []": 3056,
      "center": 3057,
      "================================": 3058,
      "Ä results": 3059,
      "Ä continue": 3060,
      "Ä talk": 3061,
      "_get": 3062,
      "Ä grow": 3063,
      ".sw": 3064,
      "eb": 3065,
      "Ä Public": 3066,
      "OP": 3067,
      "ecute": 3068,
      "ols": 3069,
      "Ä **": 3070,
      "\");ÄŠÄŠ": 3071,
      "Ä mass": 3072,
      "ured": 3073,
      ".class": 3074,
      "omic": 3075,
      "Ä mean": 3076,
      "ips": 3077,
      "Ä aut": 3078,
      ");ÄÄŠÄÄŠ": 3079,
      "Ä until": 3080,
      "Ä market": 3081,
      "Ä area": 3082,
      "uit": 3083,
      "Ä length": 3084,
      "Ä With": 3085,
      "structor": 3086,
      "event": 3087,
      "\"><": 3088,
      "Ä Sp": 3089,
      "IV": 3090,
      "Ä mus": 3091,
      "iff": 3092,
      "Ä kind": 3093,
      "author": 3094,
      "ounds": 3095,
      "mb": 3096,
      "_key": 3097,
      "width": 3098,
      "pository": 3099,
      "Ä light": 3100,
      "uk": 3101,
      "Row": 3102,
      "ohn": 3103,
      "alf": 3104,
      "vironment": 3105,
      "apper": 3106,
      "ollections": 3107,
      "Ä side": 3108,
      "_info": 3109,
      "Ä example": 3110,
      "imary": 3111,
      "Ä wr": 3112,
      "Ä camp": 3113,
      "cribe": 3114,
      "\"/": 3115,
      "Ä miss": 3116,
      "way": 3117,
      "Ä based": 3118,
      "Ä plan": 3119,
      "Vis": 3120,
      "omain": 3121,
      "unk": 3122,
      "Ä away": 3123,
      "UP": 3124,
      "<T": 3125,
      "OS": 3126,
      "iod": 3127,
      "Ä Mon": 3128,
      "Ã¢Ä¢Ä»re": 3129,
      "Ä lik": 3130,
      "ÃƒÂ§": 3131,
      "ively": 3132,
      ".v": 3133,
      "imer": 3134,
      "izer": 3135,
      "Sub": 3136,
      "Ä button": 3137,
      "Ä Up": 3138,
      "Ä experience": 3139,
      "CL": 3140,
      "Ä render": 3141,
      "_value": 3142,
      "Ä near": 3143,
      "URL": 3144,
      "alt": 3145,
      "Ä country": 3146,
      "ibility": 3147,
      "(),ÄŠ": 3148,
      "ead": 3149,
      "Ä author": 3150,
      "Ä specific": 3151,
      "base": 3152,
      "(name": 3153,
      "ones": 3154,
      "Ä Do": 3155,
      "Ä along": 3156,
      "year": 3157,
      "Ä express": 3158,
      ".'": 3159,
      "env": 3160,
      "Ä begin": 3161,
      "Ä software": 3162,
      "Ä imp": 3163,
      "Ä win": 3164,
      "ÃƒÂ³n": 3165,
      "Ä thing": 3166,
      "Trans": 3167,
      "Ä THE": 3168,
      "Ä <?": 3169,
      "Ä why": 3170,
      "Ä doesn": 3171,
      "ij": 3172,
      "ging": 3173,
      "Ä‰g": 3174,
      "Ä single": 3175,
      "offset": 3176,
      "arning": 3177,
      "ograph": 3178,
      "ley": 3179,
      "_count": 3180,
      "Ä anal": 3181,
      "create": 3182,
      "/m": 3183,
      "Ä Reg": 3184,
      "unch": 3185,
      "=$": 3186,
      "isk": 3187,
      "Ä rights": 3188,
      "(M": 3189,
      "Ä \"\"\"ÄŠ": 3190,
      "aper": 3191,
      ".model": 3192,
      "Ä po": 3193,
      "empty": 3194,
      "artment": 3195,
      "Ä ant": 3196,
      "Ä When": 3197,
      "Ä women": 3198,
      "Ä Ed": 3199,
      "Ä season": 3200,
      "Ä dest": 3201,
      "ÃƒÂ£": 3202,
      "(h": 3203,
      "Ä possible": 3204,
      "Ä sever": 3205,
      "Ä btn": 3206,
      "Ä didn": 3207,
      "Ä sent": 3208,
      "Ä enc": 3209,
      "Ä command": 3210,
      "Ä ],ÄŠ": 3211,
      "_x": 3212,
      "Ä recent": 3213,
      "olution": 3214,
      "vector": 3215,
      "Ä By": 3216,
      "Ä May": 3217,
      "Ä Act": 3218,
      "Â»Â¿": 3219,
      "Ä money": 3220,
      "INT": 3221,
      "bsite": 3222,
      "Ä‰p": 3223,
      ".ÄÄŠ": 3224,
      "Ã¯Â»Â¿": 3225,
      "sl": 3226,
      "attern": 3227,
      "Ä Class": 3228,
      "Ä told": 3229,
      "udio": 3230,
      "current": 3231,
      "Ä equ": 3232,
      "Ä auto": 3233,
      "Ä State": 3234,
      "da": 3235,
      "msg": 3236,
      "));ÄŠÄŠ": 3237,
      "Ä working": 3238,
      "Ä query": 3239,
      "Ä Br": 3240,
      "Ä window": 3241,
      "auth": 3242,
      "only": 3243,
      "Ä‰t": 3244,
      "Ä least": 3245,
      "agn": 3246,
      "Ä expl": 3247,
      "itter": 3248,
      "aring": 3249,
      "Ä column": 3250,
      "Ä General": 3251,
      "\":\"": 3252,
      "eral": 3253,
      "rior": 3254,
      "Ä record": 3255,
      "IB": 3256,
      "EX": 3257,
      "Ä dat": 3258,
      "Ä making": 3259,
      "ued": 3260,
      "Ä Car": 3261,
      "emp": 3262,
      "\".": 3263,
      "Ä Med": 3264,
      "Ä close": 3265,
      "Ä percent": 3266,
      "Ä past": 3267,
      "(g": 3268,
      ":(": 3269,
      "Ä write": 3270,
      "Ä move": 3271,
      "Ä pat": 3272,
      "Control": 3273,
      ".To": 3274,
      "Ä vi": 3275,
      "*/ÄŠ": 3276,
      "inate": 3277,
      "'ll": 3278,
      "aged": 3279,
      "Null": 3280,
      "Ä special": 3281,
      "IZE": 3282,
      "Ä city": 3283,
      "/*ÄŠ": 3284,
      "Ä Eng": 3285,
      "ixed": 3286,
      "inary": 3287,
      "py": 3288,
      "Ä eff": 3289,
      "ario": 3290,
      "Ä tell": 3291,
      "avor": 3292,
      "Ä select": 3293,
      "level": 3294,
      "imum": 3295,
      "oper": 3296,
      "Builder": 3297,
      "IP": 3298,
      "'),ÄŠ": 3299,
      "esc": 3300,
      "Ä font": 3301,
      "\";ÄŠÄŠ": 3302,
      "Ä Am": 3303,
      "ished": 3304,
      "ills": 3305,
      "Inter": 3306,
      "OW": 3307,
      "Ä course": 3308,
      "Ä late": 3309,
      "iddle": 3310,
      "Ä amount": 3311,
      "Ä async": 3312,
      "ino": 3313,
      "cul": 3314,
      "Ä Ã¬": 3315,
      "andle": 3316,
      "_user": 3317,
      "Ä ben": 3318,
      "Ä Cal": 3319,
      "Ä $_": 3320,
      "Ä Rep": 3321,
      "Ä enough": 3322,
      "Token": 3323,
      ".user": 3324,
      "(j": 3325,
      "Sc": 3326,
      "Width": 3327,
      "now": 3328,
      "atform": 3329,
      "Ä looking": 3330,
      "Ä hold": 3331,
      "Module": 3332,
      "ITY": 3333,
      "vo": 3334,
      "ison": 3335,
      ".Data": 3336,
      "yc": 3337,
      "Ä pot": 3338,
      "Ä Trump": 3339,
      "idual": 3340,
      "ides": 3341,
      "rt": 3342,
      "Ä property": 3343,
      "Ä Ä Ä Ä Ä Ä Ä Ä Ä Ä Ä Ä Ä Ä Ä Ä Ä Ä Ä Ä Ä Ä Ä Ä Ä Ä Ä Ä Ä Ä Ä Ä Ä Ä Ä Ä Ä Ä Ä Ä Ä Ä Ä ": 3344,
      "amework": 3345,
      "go": 3346,
      "Ä low": 3347,
      "Ä para": 3348,
      "Ä price": 3349,
      "ury": 3350,
      "Ä today": 3351,
      "roy": 3352,
      "Ä '/": 3353,
      "Ä polit": 3354,
      "Ä ''": 3355,
      "ymb": 3356,
      "Ph": 3357,
      "Ä adv": 3358,
      "Ä attack": 3359,
      "Ä Ste": 3360,
      "ROM": 3361,
      "ana": 3362,
      "Ä means": 3363,
      "Ä story": 3364,
      "ids": 3365,
      "aken": 3366,
      "Ä meet": 3367,
      "Ä mom": 3368,
      "Ä Ã¢Ä¢Äº": 3369,
      "Ä ?>": 3370,
      "Ä den": 3371,
      "obile": 3372,
      "change": 3373,
      "Ä Ä Ä Ä Ä Ä Ä Ä Ä Ä Ä Ä ÄŠ": 3374,
      "ici": 3375,
      "na": 3376,
      "Ä Form": 3377,
      "Ä sort": 3378,
      "Select": 3379,
      "pare": 3380,
      "Ä thought": 3381,
      "_con": 3382,
      "Ä task": 3383,
      "ocus": 3384,
      "Ä DE": 3385,
      "Ä Min": 3386,
      "Ä opt": 3387,
      "Ä‰break": 3388,
      "umer": 3389,
      "KE": 3390,
      "then": 3391,
      "Ä det": 3392,
      "Ä Test": 3393,
      "ports": 3394,
      "Ä review": 3395,
      "('/": 3396,
      "move": 3397,
      "Ä switch": 3398,
      "ERT": 3399,
      "patch": 3400,
      "annot": 3401,
      "Ã£Ä¤": 3402,
      "Ä above": 3403,
      "itive": 3404,
      "Ä question": 3405,
      "Ä Qu": 3406,
      "Ã£Ä¢Ä¤ÄŠÄŠ": 3407,
      "gle": 3408,
      "Ä word": 3409,
      "Ä provide": 3410,
      "Ä Return": 3411,
      "Ä research": 3412,
      "ÃƒÂ£o": 3413,
      "ustr": 3414,
      "Ä publish": 3415,
      "chema": 3416,
      "}}": 3417,
      "Ä CON": 3418,
      "-in": 3419,
      "allback": 3420,
      "Ä cover": 3421,
      "\\\\": 3422,
      "color": 3423,
      "Ä IS": 3424,
      "Ä whether": 3425,
      "imate": 3426,
      "isc": 3427,
      "Bar": 3428,
      "Ä div": 3429,
      "Be": 3430,
      "ourn": 3431,
      "Ä having": 3432,
      "lem": 3433,
      "player": 3434,
      "abs": 3435,
      "amera": 3436,
      "ney": 3437,
      "Ä exc": 3438,
      "gether": 3439,
      "plied": 3440,
      "ao": 3441,
      "[$": 3442,
      "Ä ++": 3443,
      "ipe": 3444,
      "show": 3445,
      "/d": 3446,
      "[:": 3447,
      "agement": 3448,
      "lev": 3449,
      "_ID": 3450,
      "rary": 3451,
      "ades": 3452,
      "_se": 3453,
      "ause": 3454,
      "Ä employ": 3455,
      "Ä */ÄÄŠ": 3456,
      "Ä fre": 3457,
      "Ä '@": 3458,
      "Ä complet": 3459,
      "Ä large": 3460,
      "ral": 3461,
      "\\x": 3462,
      "Ä fac": 3463,
      "<String": 3464,
      "Ä created": 3465,
      "uper": 3466,
      ".state": 3467,
      "Ä host": 3468,
      "eneric": 3469,
      "/b": 3470,
      "(!": 3471,
      "while": 3472,
      "ias": 3473,
      "BUG": 3474,
      "Ä );ÄŠÄŠ": 3475,
      "Ä role": 3476,
      "Reg": 3477,
      "Ä Color": 3478,
      "Start": 3479,
      "Ä porn": 3480,
      "top": 3481,
      "Ä web": 3482,
      "Ä dev": 3483,
      "Ä deal": 3484,
      "++)ÄŠ": 3485,
      "Integer": 3486,
      "position": 3487,
      ".on": 3488,
      "Ä (\"": 3489,
      "Ã¤Â¸": 3490,
      "Ä problem": 3491,
      "sv": 3492,
      "Ä press": 3493,
      "ABLE": 3494,
      "ATION": 3495,
      "Ä See": 3496,
      "anch": 3497,
      "Ä though": 3498,
      "leep": 3499,
      "Ä <!--": 3500,
      "Ä points": 3501,
      "Ä Ä Ä Ä Ä Ä Ä Ä Ä Ä Ä Ä Ä Ä Ä Ä Ä Ä Ä Ä Ä Ä Ä Ä Ä ": 3502,
      ".J": 3503,
      "Ä ::": 3504,
      "ptr": 3505,
      "DB": 3506,
      "++;ÄŠ": 3507,
      ".png": 3508,
      "node": 3509,
      "soft": 3510,
      "pond": 3511,
      "Ä ever": 3512,
      "----------------------------------------------------------------": 3513,
      "Menu": 3514,
      "('#": 3515,
      "Ä services": 3516,
      "pg": 3517,
      "})ÄŠ": 3518,
      "params": 3519,
      "Ä actually": 3520,
      "Ä \"/": 3521,
      "Empty": 3522,
      "Method": 3523,
      "Ä ident": 3524,
      "unic": 3525,
      "Ä million": 3526,
      "Ä aff": 3527,
      "style": 3528,
      "Ä conc": 3529,
      "ios": 3530,
      "ignment": 3531,
      "ULT": 3532,
      "Pr": 3533,
      "\";ÄÄŠ": 3534,
      "Ä understand": 3535,
      "uary": 3536,
      "Ä happen": 3537,
      "Ä server": 3538,
      "Ä Co": 3539,
      "SC": 3540,
      "Ä les": 3541,
      "Ä files": 3542,
      "Grid": 3543,
      "sql": 3544,
      "Ä often": 3545,
      "Ä info": 3546,
      "_tr": 3547,
      "src": 3548,
      "ony": 3549,
      "Ä space": 3550,
      "umb": 3551,
      "Ä password": 3552,
      "Ä store": 3553,
      ",ÄŠÄŠ": 3554,
      "Ä What": 3555,
      "ged": 3556,
      "Ä False": 3557,
      "Us": 3558,
      "swer": 3559,
      "_index": 3560,
      "Ä format": 3561,
      "most": 3562,
      "sm": 3563,
      "New": 3564,
      "Ä details": 3565,
      "Ä prob": 3566,
      "Ä AND": 3567,
      "()ÄÄŠ": 3568,
      "ilar": 3569,
      "Ä ${": 3570,
      "rypt": 3571,
      ".Collections": 3572,
      "$this": 3573,
      "Ä Free": 3574,
      "_of": 3575,
      "(false": 3576,
      "dated": 3577,
      "Ä >>": 3578,
      "Ä face": 3579,
      "CTION": 3580,
      "Ä save": 3581,
      "Ä typ": 3582,
      "dev": 3583,
      "(\"#": 3584,
      "AGE": 3585,
      "container": 3586,
      "edit": 3587,
      "QL": 3588,
      "Ä items": 3589,
      "Ä social": 3590,
      "ien": 3591,
      "Ä React": 3592,
      ").ÄŠÄŠ": 3593,
      "Ä mar": 3594,
      "Ä redu": 3595,
      "Ä RE": 3596,
      ".put": 3597,
      "Ä major": 3598,
      "Cell": 3599,
      "next": 3600,
      "Ä expected": 3601,
      "Ä yet": 3602,
      "Ä indiv": 3603,
      "tributes": 3604,
      "atis": 3605,
      "amed": 3606,
      "Ä food": 3607,
      "Source": 3608,
      "(string": 3609,
      "Ä +ÄŠ": 3610,
      "ites": 3611,
      "dr": 3612,
      "Ä members": 3613,
      "Ä comb": 3614,
      "items": 3615,
      "Ä Per": 3616,
      "TH": 3617,
      "=True": 3618,
      "Ä bar": 3619,
      "_SE": 3620,
      "comm": 3621,
      "(w": 3622,
      ")ÄŠÄŠÄŠ": 3623,
      "Ä send": 3624,
      "Ä inc": 3625,
      "unsigned": 3626,
      "FA": 3627,
      "Ä params": 3628,
      "apping": 3629,
      "ros": 3630,
      "ugin": 3631,
      "fa": 3632,
      "Ä connection": 3633,
      "Ä };ÄŠÄŠ": 3634,
      "Ä become": 3635,
      "Mode": 3636,
      "Ä ev": 3637,
      "Ä diff": 3638,
      "Ä United": 3639,
      "Height": 3640,
      "fully": 3641,
      "images": 3642,
      "Ä makes": 3643,
      "Ä global": 3644,
      "Ä contact": 3645,
      "':ÄŠ": 3646,
      "Ä abs": 3647,
      "ÃÂ°Ã": 3648,
      "float": 3649,
      "Ä except": 3650,
      "Ä Pol": 3651,
      "Child": 3652,
      "typ": 3653,
      "Ä certain": 3654,
      "iÃƒÂ³n": 3655,
      "OUT": 3656,
      "Ä impro": 3657,
      "iles": 3658,
      "Ä -->ÄŠ": 3659,
      "Ä Part": 3660,
      "values": 3661,
      "oss": 3662,
      "/**": 3663,
      "ilit": 3664,
      "Ä Event": 3665,
      "curity": 3666,
      "ster": 3667,
      "Ä character": 3668,
      "Ä news": 3669,
      "Ä \",": 3670,
      "Ä device": 3671,
      "cel": 3672,
      "login": 3673,
      "heet": 3674,
      "Default": 3675,
      "@\"": 3676,
      "Ä‰Ä ": 3677,
      "click": 3678,
      "(value": 3679,
      "Ä Ab": 3680,
      "Ä previous": 3681,
      "ERROR": 3682,
      "ocal": 3683,
      "Ä material": 3684,
      "Ä below": 3685,
      "Ä Christ": 3686,
      "Ä media": 3687,
      "cover": 3688,
      "Ä UI": 3689,
      "Ä fail": 3690,
      "Ä black": 3691,
      "Ä component": 3692,
      "Ä American": 3693,
      "Ä added": 3694,
      "Ä buy": 3695,
      "stit": 3696,
      "Ä came": 3697,
      "Ä delete": 3698,
      "property": 3699,
      "oding": 3700,
      "Ä card": 3701,
      "rops": 3702,
      "Ä https": 3703,
      "Ä root": 3704,
      "Ä handle": 3705,
      "CC": 3706,
      "Back": 3707,
      "emplate": 3708,
      "Ä getting": 3709,
      "_by": 3710,
      "mail": 3711,
      "_sh": 3712,
      ".assert": 3713,
      "Ä Dec": 3714,
      "(true": 3715,
      "Ä comput": 3716,
      "Ä claim": 3717,
      "'=>": 3718,
      "Ä Sub": 3719,
      "Ä air": 3720,
      "ops": 3721,
      "nav": 3722,
      "ements": 3723,
      "(id": 3724,
      "Ä enter": 3725,
      "anged": 3726,
      "End": 3727,
      "Ä location": 3728,
      "Ä night": 3729,
      "Ä doing": 3730,
      "Ä Red": 3731,
      "lin": 3732,
      "}ÄŠÄŠÄŠ": 3733,
      "vider": 3734,
      "Ä pick": 3735,
      "Ä watch": 3736,
      "essages": 3737,
      "Ä human": 3738,
      "Ä dam": 3739,
      "pend": 3740,
      "dir": 3741,
      "Ä tax": 3742,
      "Ä girl": 3743,
      "reet": 3744,
      "Ä box": 3745,
      "Ä strong": 3746,
      "(v": 3747,
      "rel": 3748,
      "Ä interface": 3749,
      "Ä msg": 3750,
      "fect": 3751,
      "_at": 3752,
      "Ä house": 3753,
      "Ä track": 3754,
      "');ÄŠÄŠ": 3755,
      "je": 3756,
      "Ä John": 3757,
      "istr": 3758,
      "(S": 3759,
      "ube": 3760,
      "Ä ce": 3761,
      "itted": 3762,
      "VER": 3763,
      "*)": 3764,
      "parent": 3765,
      "Ä application": 3766,
      "any": 3767,
      ".swing": 3768,
      "Ä pack": 3769,
      "\\u": 3770,
      "Ä pract": 3771,
      "Ä section": 3772,
      "ctx": 3773,
      "Ä unsigned": 3774,
      ".Point": 3775,
      "Ä One": 3776,
      "Ã„Â±": 3777,
      "iple": 3778,
      "aid": 3779,
      "Ã‘Ä¥": 3780,
      "Vector": 3781,
      "byte": 3782,
      "Ä wait": 3783,
      "Ä ÃƒÅ‚": 3784,
      "ÃƒÂ¥": 3785,
      "Ä together": 3786,
      "Ä throws": 3787,
      "FO": 3788,
      "'))": 3789,
      "host": 3790,
      "ising": 3791,
      ".view": 3792,
      "Ä terms": 3793,
      "framework": 3794,
      "-r": 3795,
      "Ä apply": 3796,
      "Ä session": 3797,
      "Options": 3798,
      "uggest": 3799,
      "Ä others": 3800,
      "witter": 3801,
      "Ä fund": 3802,
      "Init": 3803,
      "__(": 3804,
      "ensor": 3805,
      "GET": 3806,
      "Ä several": 3807,
      "ii": 3808,
      "[j": 3809,
      "IO": 3810,
      "Ä template": 3811,
      "Position": 3812,
      "Ä econ": 3813,
      "achine": 3814,
      "Ä il": 3815,
      ".spring": 3816,
      "main": 3817,
      "elt": 3818,
      "iment": 3819,
      "Rec": 3820,
      "mm": 3821,
      "Ä University": 3822,
      "ursor": 3823,
      "Ä Ä Ä Ä Ä Ä Ä Ä Ä Ä Ä Ä Ä Ä Ä Ä Ä Ä Ä Ä ": 3824,
      "GL": 3825,
      "icture": 3826,
      "ithub": 3827,
      "cer": 3828,
      "cast": 3829,
      "From": 3830,
      "ales": 3831,
      "Ä subject": 3832,
      "password": 3833,
      "ny": 3834,
      "Ä esc": 3835,
      ".write": 3836,
      "Ã¯Â¼Ä®": 3837,
      "What": 3838,
      ".H": 3839,
      "Ä history": 3840,
      "Ä Fe": 3841,
      "Ä individual": 3842,
      "unit": 3843,
      "Ä -->": 3844,
      "Ä du": 3845,
      "IST": 3846,
      "Ä users": 3847,
      "fs": 3848,
      "false": 3849,
      "unt": 3850,
      "Title": 3851,
      "Ä mot": 3852,
      "Ä future": 3853,
      "ached": 3854,
      "Ä started": 3855,
      "Ä mode": 3856,
      "Ä '<": 3857,
      "_array": 3858,
      "Ä ax": 3859,
      "'];ÄŠ": 3860,
      "ires": 3861,
      "There": 3862,
      "ught": 3863,
      "tml": 3864,
      "posed": 3865,
      "icult": 3866,
      "Ä took": 3867,
      "Ä games": 3868,
      "Ä }}": 3869,
      "Ä ?>ÄŠ": 3870,
      "Ä products": 3871,
      "Is": 3872,
      "Ä bad": 3873,
      "Ä Des": 3874,
      ".path": 3875,
      "'ÄŠÄŠ": 3876,
      "Ä Post": 3877,
      "avel": 3878,
      "(:": 3879,
      "Ä needs": 3880,
      "Ä known": 3881,
      "Fl": 3882,
      "Ä exec": 3883,
      "Ä seen": 3884,
      "ume": 3885,
      "Ä border": 3886,
      "Ä live": 3887,
      "temp": 3888,
      "Per": 3889,
      "Ä variable": 3890,
      "iet": 3891,
      "Ä Def": 3892,
      "Ä ge": 3893,
      "eme": 3894,
      "_back": 3895,
      "first": 3896,
      "Ä provided": 3897,
      "////////////////////////////////": 3898,
      "Ä filename": 3899,
      "Ä hope": 3900,
      "uly": 3901,
      "auto": 3902,
      "find": 3903,
      "_string": 3904,
      "btn": 3905,
      "itude": 3906,
      "Attribute": 3907,
      "Ä young": 3908,
      ".txt": 3909,
      "Ä website": 3910,
      "Ä Prop": 3911,
      "Ä ey": 3912,
      ">();ÄŠ": 3913,
      "ional": 3914,
      "ARR": 3915,
      "ictionary": 3916,
      "urther": 3917,
      ".</": 3918,
      "ALL": 3919,
      "Ä study": 3920,
      "ili": 3921,
      "Ä network": 3922,
      "yl": 3923,
      "istance": 3924,
      "OK": 3925,
      "NU": 3926,
      "rest": 3927,
      "Ä ST": 3928,
      "icrosoft": 3929,
      "Ä limit": 3930,
      "Ä cut": 3931,
      "():ÄŠ": 3932,
      "Ä cou": 3933,
      "ogn": 3934,
      "Ä sizeof": 3935,
      "ival": 3936,
      "Ä went": 3937,
      ".z": 3938,
      "Link": 3939,
      "Ä fire": 3940,
      "Ä across": 3941,
      "Ä community": 3942,
      "region": 3943,
      "NE": 3944,
      "Ref": 3945,
      "Ä official": 3946,
      "Ä visit": 3947,
      "olve": 3948,
      "Ä received": 3949,
      "Ä token": 3950,
      "Ä months": 3951,
      "Ä anim": 3952,
      "Ä particular": 3953,
      "styles": 3954,
      "ico": 3955,
      "Ä ess": 3956,
      ".Control": 3957,
      "Ä ÃƒÂ©": 3958,
      "ball": 3959,
      "Ä learn": 3960,
      "inding": 3961,
      "Var": 3962,
      "Ä decl": 3963,
      "(err": 3964,
      "LECT": 3965,
      "One": 3966,
      "pha": 3967,
      "Ä ~": 3968,
      "fort": 3969,
      "asure": 3970,
      "Ä mind": 3971,
      "Ä End": 3972,
      "Check": 3973,
      "Ä quick": 3974,
      "\"),": 3975,
      "AND": 3976,
      "utions": 3977,
      "Base": 3978,
      "________": 3979,
      "Ä comment": 3980,
      "INE": 3981,
      "Ã¢Ä¢Ä»ve": 3982,
      "But": 3983,
      "Ä El": 3984,
      "Ä Us": 3985,
      "Ä admin": 3986,
      "mark": 3987,
      "Ä Name": 3988,
      "`ÄŠ": 3989,
      "Ä Type": 3990,
      "amic": 3991,
      "pc": 3992,
      "loor": 3993,
      "FT": 3994,
      "Ä opp": 3995,
      "cket": 3996,
      ")->": 3997,
      "tx": 3998,
      "Ä pur": 3999,
      "uel": 4000,
      "ymbol": 4001,
      "uation": 4002,
      "anger": 4003,
      "Ä background": 4004,
      "ecess": 4005,
      "efined": 4006,
      "........": 4007,
      "Ä description": 4008,
      "Ä represent": 4009,
      "\"));ÄŠ": 4010,
      "pression": 4011,
      "rowser": 4012,
      "Ä series": 4013,
      "wards": 4014,
      "($_": 4015,
      "aise": 4016,
      "Ä hot": 4017,
      "acity": 4018,
      "ries": 4019,
      "actions": 4020,
      "Create": 4021,
      "adio": 4022,
      "amples": 4023,
      "Ä original": 4024,
      "ensive": 4025,
      "font": 4026,
      "stream": 4027,
      "Ã¯Â»Â¿using": 4028,
      ".springframework": 4029,
      "server": 4030,
      "Ä bill": 4031,
      "ACK": 4032,
      "ilename": 4033,
      "Ä frame": 4034,
      "Ä =ÄŠ": 4035,
      "Edit": 4036,
      "adius": 4037,
      "Ä draw": 4038,
      "anks": 4039,
      "Ä deter": 4040,
      "Ä comes": 4041,
      "_int": 4042,
      "Ä foreach": 4043,
      "angle": 4044,
      "Ä elect": 4045,
      "pected": 4046,
      "Header": 4047,
      "istration": 4048,
      "False": 4049,
      "Ä Game": 4050,
      "Ä filter": 4051,
      "Activity": 4052,
      "Ä larg": 4053,
      "inition": 4054,
      "Ä \"<": 4055,
      "ised": 4056,
      "Ä remove": 4057,
      "Ä Trans": 4058,
      "met": 4059,
      "see": 4060,
      "Format": 4061,
      "Command": 4062,
      "Ä EX": 4063,
      "None": 4064,
      "Ä front": 4065,
      "ASE": 4066,
      "Ä Rec": 4067,
      "oundation": 4068,
      "Ä vo": 4069,
      "=\\\"": 4070,
      "(*": 4071,
      "Change": 4072,
      ".Write": 4073,
      "group": 4074,
      "ients": 4075,
      "uy": 4076,
      "****************************************************************": 4077,
      "Ä dig": 4078,
      "hr": 4079,
      "(-": 4080,
      "Ä gen": 4081,
      "number": 4082,
      "vec": 4083,
      "urope": 4084,
      "entry": 4085,
      "LL": 4086,
      "Ä ste": 4087,
      "Valid": 4088,
      "'],": 4089,
      "_param": 4090,
      "Ä selected": 4091,
      "Ä according": 4092,
      "Ä Dis": 4093,
      "Ä util": 4094,
      "Buffer": 4095,
      "_error": 4096,
      "Ä associ": 4097,
      "_SIZE": 4098,
      "Ä wor": 4099,
      "Ä printf": 4100,
      "rag": 4101,
      "Ã‚Å‚": 4102,
      "DD": 4103,
      "Ä Val": 4104,
      "Ä activ": 4105,
      "Eng": 4106,
      "etime": 4107,
      "Ä virtual": 4108,
      "aign": 4109,
      "aur": 4110,
      "Ä Pres": 4111,
      "Ä Exception": 4112,
      "Ä anything": 4113,
      "Ä Off": 4114,
      "Ä hours": 4115,
      "Ä war": 4116,
      "Args": 4117,
      "aging": 4118,
      "Ä models": 4119,
      "Ä Time": 4120,
      "Ob": 4121,
      "ams": 4122,
      "joy": 4123,
      "Ä early": 4124,
      ".read": 4125,
      "Ä center": 4126,
      "Ä Initial": 4127,
      "Ä language": 4128,
      "length": 4129,
      "xy": 4130,
      "Ä sn": 4131,
      "Ä inf": 4132,
      "Post": 4133,
      "Ä ago": 4134,
      "Ä easy": 4135,
      "_code": 4136,
      "Ä ANY": 4137,
      "_ch": 4138,
      "Ä download": 4139,
      "(T": 4140,
      "aved": 4141,
      "Ã¢Ä¢Äµ": 4142,
      "Ä students": 4143,
      "Ä fig": 4144,
      "light": 4145,
      "xx": 4146,
      "Ä buffer": 4147,
      "Ä Dep": 4148,
      "Ä Math": 4149,
      "ITH": 4150,
      "Ä vari": 4151,
      "Ä due": 4152,
      "Factory": 4153,
      "Ä por": 4154,
      "Ä ep": 4155,
      "otype": 4156,
      "Ä cannot": 4157,
      "Ä white": 4158,
      "<int": 4159,
      "tern": 4160,
      "Ä register": 4161,
      "Ä pred": 4162,
      "clus": 4163,
      "_date": 4164,
      "Ä /**": 4165,
      "Ä auth": 4166,
      "Ä []ÄŠ": 4167,
      "Ä period": 4168,
      "nown": 4169,
      "Ä vot": 4170,
      "Ä screen": 4171,
      "'d": 4172,
      "Types": 4173,
      "Ä tmp": 4174,
      "ÃÂµÃ": 4175,
      "ural": 4176,
      "Ä benef": 4177,
      "_y": 4178,
      "Ä net": 4179,
      "Ä States": 4180,
      "']['": 4181,
      "Ä Ne": 4182,
      "Ä NOT": 4183,
      "Ä neg": 4184,
      "Ä common": 4185,
      "scope": 4186,
      "Ä cred": 4187,
      "ges": 4188,
      "_TYPE": 4189,
      "Ä suggest": 4190,
      "oom": 4191,
      ".ÄŠÄŠÄŠ": 4192,
      "Ä accept": 4193,
      "Ä random": 4194,
      "erm": 4195,
      "Ä Vector": 4196,
      "with": 4197,
      "TER": 4198,
      "(str": 4199,
      "Ä respons": 4200,
      "Ä hit": 4201,
      ".Set": 4202,
      "grid": 4203,
      "ria": 4204,
      "Ä click": 4205,
      "undle": 4206,
      "Case": 4207,
      "insert": 4208,
      "Utils": 4209,
      "Ä \"\"\"": 4210,
      "Ä implement": 4211,
      "atal": 4212,
      "tempt": 4213,
      "template": 4214,
      "ocr": 4215,
      "returns": 4216,
      "Ä players": 4217,
      "users": 4218,
      "edef": 4219,
      "Ä These": 4220,
      "Ä among": 4221,
      "Ä deb": 4222,
      "ha": 4223,
      ".getElement": 4224,
      "Ä circ": 4225,
      "Ä answer": 4226,
      "Ä walk": 4227,
      "Ä treat": 4228,
      "Ä Ge": 4229,
      "Ä Create": 4230,
      "Ä age": 4231,
      "Ä req": 4232,
      "OST": 4233,
      "angular": 4234,
      "Ã‘Ä±": 4235,
      "Ä five": 4236,
      "Ä distributed": 4237,
      "Ä friend": 4238,
      "TP": 4239,
      "Ä clean": 4240,
      "ows": 4241,
      ".Controls": 4242,
      "dis": 4243,
      "Ä words": 4244,
      ".io": 4245,
      "zy": 4246,
      "Ä header": 4247,
      "Ä Check": 4248,
      "Ã¢Ä¢Ä»m": 4249,
      "just": 4250,
      "holder": 4251,
      "=\"<?": 4252,
      "Ä GNU": 4253,
      "Ä Col": 4254,
      "imest": 4255,
      "entic": 4256,
      "{ÄŠÄŠ": 4257,
      "Ä tre": 4258,
      "last": 4259,
      "la": 4260,
      "Ä York": 4261,
      "Lo": 4262,
      "Ä discuss": 4263,
      "Ä God": 4264,
      "Ä issue": 4265,
      "rew": 4266,
      "Window": 4267,
      "Ä land": 4268,
      "Ä stream": 4269,
      "Ä Par": 4270,
      "Ä quality": 4271,
      "Par": 4272,
      "_num": 4273,
      "Ä sal": 4274,
      "elves": 4275,
      "ORD": 4276,
      "(user": 4277,
      "Ä works": 4278,
      "Ä half": 4279,
      "enses": 4280,
      "vas": 4281,
      "Ä police": 4282,
      "(\"/": 4283,
      "ua": 4284,
      "Ä simple": 4285,
      "Address": 4286,
      "Ä empty": 4287,
      "esh": 4288,
      "Update": 4289,
      "Ä Created": 4290,
      "('.": 4291,
      ").ÄŠ": 4292,
      "Ä Ä Ä Ä Ä Ä Ä Ä Ä Ä Ä Ä Ä Ä Ä Ä Ä Ä ": 4293,
      "Ä agre": 4294,
      "Ä FROM": 4295,
      "Ä cook": 4296,
      "Ä everything": 4297,
      "ilities": 4298,
      ".status": 4299,
      "Ä relations": 4300,
      "extern": 4301,
      "Ä nothing": 4302,
      "Ä running": 4303,
      "Ä‰void": 4304,
      "RI": 4305,
      "_a": 4306,
      "_CON": 4307,
      "por": 4308,
      ".sub": 4309,
      "require": 4310,
      "Ä City": 4311,
      "Ä West": 4312,
      "Ä mor": 4313,
      "store": 4314,
      "Equals": 4315,
      "oder": 4316,
      "Ä na": 4317,
      "Ä [[": 4318,
      "Ä ('": 4319,
      "Ä Don": 4320,
      "ERS": 4321,
      "/p": 4322,
      ".json": 4323,
      "abor": 4324,
      "Ä someone": 4325,
      "_text": 4326,
      ".css": 4327,
      ".Tab": 4328,
      "Ä Some": 4329,
      "ato": 4330,
      "double": 4331,
      "Ä share": 4332,
      "(void": 4333,
      "_dir": 4334,
      "Ä ur": 4335,
      "Stack": 4336,
      "Ä World": 4337,
      ".X": 4338,
      "stract": 4339,
      "How": 4340,
      ".Generic": 4341,
      "icles": 4342,
      "Ä entry": 4343,
      "Ä changes": 4344,
      "Ä personal": 4345,
      "(A": 4346,
      "Ä offset": 4347,
      "_ptr": 4348,
      "Ä pie": 4349,
      "Ä Jan": 4350,
      "-group": 4351,
      "module": 4352,
      "Items": 4353,
      "Ä However": 4354,
      "verage": 4355,
      ".Font": 4356,
      "Ä events": 4357,
      ".min": 4358,
      "Ä invol": 4359,
      "za": 4360,
      "Ä whole": 4361,
      "Ä needed": 4362,
      "Ä likely": 4363,
      "rief": 4364,
      "ORM": 4365,
      "version": 4366,
      "Ä fight": 4367,
      "Ä ein": 4368,
      "Frame": 4369,
      "gen": 4370,
      "Ä Out": 4371,
      "avigation": 4372,
      "Length": 4373,
      "illed": 4374,
      "quence": 4375,
      "Ä !==": 4376,
      "Ä Software": 4377,
      "Ä writing": 4378,
      "Ä rate": 4379,
      "'],ÄŠ": 4380,
      "Panel": 4381,
      "inner": 4382,
      "Ä [\"": 4383,
      "Ä tw": 4384,
      "cd": 4385,
      "Ä ;ÄŠ": 4386,
      "_state": 4387,
      "Ä Sm": 4388,
      "Ä Mark": 4389,
      "))ÄŠÄŠ": 4390,
      "prot": 4391,
      "Ä Mr": 4392,
      "method": 4393,
      "ustomer": 4394,
      "Icon": 4395,
      "Ä correct": 4396,
      "(object": 4397,
      "Ä More": 4398,
      "Ä fall": 4399,
      "Ä vol": 4400,
      "Ä development": 4401,
      "ently": 4402,
      "Ä si": 4403,
      "medi": 4404,
      "ving": 4405,
      "PP": 4406,
      "aker": 4407,
      "Ä indu": 4408,
      "Ä elif": 4409,
      "Ä pret": 4410,
      "Ä believe": 4411,
      "ns": 4412,
      "omet": 4413,
      "Ä Intern": 4414,
      "Rect": 4415,
      "So": 4416,
      ".error": 4417,
      "Read": 4418,
      "Ä features": 4419,
      "Ä minutes": 4420,
      "---": 4421,
      "asing": 4422,
      "cret": 4423,
      "\">ÄÄŠ": 4424,
      ".annot": 4425,
      "Ä collection": 4426,
      "'.": 4427,
      "Ä similar": 4428,
      "Ä taken": 4429,
      "(\"%": 4430,
      "Order": 4431,
      "']ÄŠ": 4432,
      "-md": 4433,
      "Ä TH": 4434,
      "aced": 4435,
      "Ä isn": 4436,
      "/j": 4437,
      "Ä son": 4438,
      "graph": 4439,
      "Ä Integer": 4440,
      "Ä necess": 4441,
      "reen": 4442,
      "Ä um": 4443,
      "Ä \\<": 4444,
      "Ä moment": 4445,
      "Ä bring": 4446,
      "Ä indic": 4447,
      "ysis": 4448,
      "Level": 4449,
      "verse": 4450,
      "urrenc": 4451,
      "_test": 4452,
      "Ä entire": 4453,
      "Down": 4454,
      "Ä }ÄŠÄŠÄŠ": 4455,
      "(result": 4456,
      "Ä Read": 4457,
      "ÃƒÂ¨": 4458,
      "Mod": 4459,
      "Ä trying": 4460,
      "\"),ÄŠ": 4461,
      "Ä member": 4462,
      "Ä Cor": 4463,
      "ODO": 4464,
      "-control": 4465,
      "untime": 4466,
      "Ä Sim": 4467,
      "Dialog": 4468,
      "plot": 4469,
      "_on": 4470,
      "Ä phys": 4471,
      "}/": 4472,
      "Ä namespace": 4473,
      "Ä‰ÄÄŠ": 4474,
      "acc": 4475,
      "Player": 4476,
      "ARE": 4477,
      "Ä foot": 4478,
      "Ä board": 4479,
      "part": 4480,
      "Ä sus": 4481,
      "wise": 4482,
      "Ä Mc": 4483,
      "Ä push": 4484,
      "ATA": 4485,
      "Ä please": 4486,
      "ried": 4487,
      "weet": 4488,
      "bit": 4489,
      "ided": 4490,
      "VE": 4491,
      "Ä Sw": 4492,
      "UB": 4493,
      "Ä types": 4494,
      "edia": 4495,
      "Ä clos": 4496,
      "acebook": 4497,
      "When": 4498,
      "Ä edit": 4499,
      "igger": 4500,
      "Ä energ": 4501,
      "Container": 4502,
      "Ä phot": 4503,
      "Ä Count": 4504,
      "Ä Europe": 4505,
      ".Is": 4506,
      "Ä Russ": 4507,
      "peed": 4508,
      "Ä Str": 4509,
      "Ä py": 4510,
      "Ä cult": 4511,
      "Ä defined": 4512,
      "ccount": 4513,
      "Ä obt": 4514,
      ".Location": 4515,
      "Ä thread": 4516,
      "ille": 4517,
      "Ä instead": 4518,
      "strong": 4519,
      "Ä Sec": 4520,
      "URE": 4521,
      "Ä idea": 4522,
      ".se": 4523,
      "emy": 4524,
      "selected": 4525,
      "Connection": 4526,
      "acing": 4527,
      "thread": 4528,
      ".next": 4529,
      "Ä coll": 4530,
      "Ä film": 4531,
      "istic": 4532,
      "Ä compet": 4533,
      "Ä conn": 4534,
      "though": 4535,
      "Ä compan": 4536,
      "ocket": 4537,
      "Ä teach": 4538,
      "=(": 4539,
      "Ä phone": 4540,
      "Ä active": 4541,
      "delete": 4542,
      "tries": 4543,
      "Ä mo": 4544,
      "Ä death": 4545,
      "});ÄŠÄŠ": 4546,
      "ocol": 4547,
      "Widget": 4548,
      "Ä article": 4549,
      "rodu": 4550,
      "andid": 4551,
      "Ã‘Ä­": 4552,
      "Ä Cr": 4553,
      "ka": 4554,
      "():": 4555,
      "lood": 4556,
      "Ä‰Ä‰Ä‰ÄŠ": 4557,
      "Ä almost": 4558,
      "Ä sell": 4559,
      "ervlet": 4560,
      "rip": 4561,
      "Unit": 4562,
      "Ä applic": 4563,
      "Ä connect": 4564,
      "Ä feature": 4565,
      "Ä via": 4566,
      "'),": 4567,
      "Ä lim": 4568,
      "Ä Ä Ä Ä Ä Ä Ä Ä Ä Ä Ä Ä Ä Ä Ä Ä Ä Ä Ä Ä Ä Ä Ä Ä Ä Ä Ä Ä Ä Ä Ä Ä Ä Ä Ä Ä Ä Ä Ä Ä Ä Ä Ä Ä Ä Ä Ä ": 4569,
      "Ä Gu": 4570,
      "Engine": 4571,
      "Ä ens": 4572,
      "Ä environment": 4573,
      "block": 4574,
      "HERE": 4575,
      "NULL": 4576,
      "gy": 4577,
      "tag": 4578,
      ")).": 4579,
      "exp": 4580,
      "Ä compl": 4581,
      "Ä install": 4582,
      "Ä complete": 4583,
      "queue": 4584,
      "atural": 4585,
      "Ä general": 4586,
      "thon": 4587,
      "Ä asked": 4588,
      "ores": 4589,
      "(res": 4590,
      "Ä reserved": 4591,
      "SP": 4592,
      "Ä Ã¢Ä¢Â¦": 4593,
      "Ã…Ä¤": 4594,
      "Ä signific": 4595,
      "Off": 4596,
      "Ä Ä Ä Ä Ä Ä Ä Ä Ä Ä Ä Ä Ä Ä Ä Ä Ä Ä Ä Ä Ä Ä Ä Ä Ä Ä Ä Ä Ä ": 4597,
      "Ä Ag": 4598,
      "Ä Just": 4599,
      "Ä Error": 4600,
      "Ä infl": 4601,
      "adata": 4602,
      "Ä icon": 4603,
      "asks": 4604,
      "''": 4605,
      "_LO": 4606,
      "?.": 4607,
      "account": 4608,
      "Ä (*": 4609,
      "')ÄŠÄŠ": 4610,
      "rap": 4611,
      "_var": 4612,
      "Ä FOR": 4613,
      "Ä party": 4614,
      "Ä Your": 4615,
      "cat": 4616,
      "stry": 4617,
      ".new": 4618,
      "boot": 4619,
      "Ä Nov": 4620,
      "Ä vector": 4621,
      "Ä normal": 4622,
      "Ä further": 4623,
      "Repository": 4624,
      "Ä database": 4625,
      "attle": 4626,
      "Ä music": 4627,
      "Ä speed": 4628,
      "Ä doc": 4629,
      "process": 4630,
      "IGHT": 4631,
      ".parse": 4632,
      "Ä taking": 4633,
      "Ä viol": 4634,
      "ceed": 4635,
      "Ä After": 4636,
      "Ä forward": 4637,
      "Ä crit": 4638,
      "\"/>ÄŠ": 4639,
      "rot": 4640,
      "Ä failed": 4641,
      "efore": 4642,
      "Ä concern": 4643,
      "oe": 4644,
      "ba": 4645,
      "Ä sender": 4646,
      "Ä term": 4647,
      "has": 4648,
      "=\"#": 4649,
      "Ä potential": 4650,
      "Num": 4651,
      "Ä published": 4652,
      ".close": 4653,
      "Ä Image": 4654,
      "straint": 4655,
      "UD": 4656,
      "Ä Ob": 4657,
      "Ä probably": 4658,
      "lim": 4659,
      "\":ÄŠ": 4660,
      "olume": 4661,
      "Ä consum": 4662,
      "ague": 4663,
      "ensions": 4664,
      "Ä investig": 4665,
      "-year": 4666,
      "');": 4667,
      "-sm": 4668,
      "Ä enjoy": 4669,
      "orig": 4670,
      "ering": 4671,
      "cp": 4672,
      "leased": 4673,
      "plements": 4674,
      "Ä returns": 4675,
      "pat": 4676,
      "BO": 4677,
      "Ä House": 4678,
      ".Label": 4679,
      "Ä weight": 4680,
      "ighb": 4681,
      "Ä conditions": 4682,
      "Ä exception": 4683,
      "description": 4684,
      "Ä trad": 4685,
      "-to": 4686,
      "Ä {}": 4687,
      "Ä module": 4688,
      "END": 4689,
      ".ap": 4690,
      ".props": 4691,
      "Ä constructor": 4692,
      "aves": 4693,
      "Ä favor": 4694,
      "Ä Now": 4695,
      ";i": 4696,
      "Ä Main": 4697,
      "_k": 4698,
      "eries": 4699,
      "Ã¢Ä¢Ä»ll": 4700,
      "transform": 4701,
      "imestamp": 4702,
      "Pre": 4703,
      "Ä mer": 4704,
      ".res": 4705,
      "stant": 4706,
      "Location": 4707,
      "_NAME": 4708,
      "Ä loss": 4709,
      "Ä ÄŠÄŠ": 4710,
      "net": 4711,
      "Ä engine": 4712,
      "Block": 4713,
      "Ä issues": 4714,
      "Ä parse": 4715,
      "Ä Bar": 4716,
      "Ä stay": 4717,
      "Ä JSON": 4718,
      "Ä dom": 4719,
      "airs": 4720,
      "wner": 4721,
      "Ä lower": 4722,
      "\",ÄÄŠ": 4723,
      "Ä Dem": 4724,
      "ufact": 4725,
      "Ä ps": 4726,
      "Ä perfect": 4727,
      "RL": 4728,
      "Ä educ": 4729,
      "ls": 4730,
      "emory": 4731,
      "ARRANT": 4732,
      "uge": 4733,
      "Ä exact": 4734,
      ".key": 4735,
      "alled": 4736,
      "ech": 4737,
      "ief": 4738,
      "\\/": 4739,
      "oke": 4740,
      "Ä former": 4741,
      "alloc": 4742,
      "Ä six": 4743,
      "ida": 4744,
      "Ä margin": 4745,
      "Ä heart": 4746,
      "ald": 4747,
      "pack": 4748,
      ".getElementById": 4749,
      "Ä WARRANT": 4750,
      "Ä rather": 4751,
      "Ä building": 4752,
      "erman": 4753,
      "lice": 4754,
      "Ä questions": 4755,
      "izes": 4756,
      "lege": 4757,
      "irectory": 4758,
      "Ä je": 4759,
      "Ä cas": 4760,
      "props": 4761,
      "utf": 4762,
      "Ä security": 4763,
      "Ä however": 4764,
      "weight": 4765,
      "Ä inside": 4766,
      "Ä president": 4767,
      "Char": 4768,
      "Ä WITH": 4769,
      ".map": 4770,
      "Ä graph": 4771,
      "Ä tag": 4772,
      "_status": 4773,
      "Ä attempt": 4774,
      "opp": 4775,
      "uses": 4776,
      "Ä‰const": 4777,
      "Ä round": 4778,
      ",$": 4779,
      "Ä friends": 4780,
      "Email": 4781,
      "?>": 4782,
      "Resource": 4783,
      "KEY": 4784,
      "osp": 4785,
      ".query": 4786,
      "Ä North": 4787,
      "ables": 4788,
      "istrib": 4789,
      "_class": 4790,
      "ello": 4791,
      "That": 4792,
      "ÃÂº": 4793,
      "pecially": 4794,
      "Ä President": 4795,
      "Ä campaign": 4796,
      "Ä alt": 4797,
      "area": 4798,
      "Ä chall": 4799,
      "Ä opport": 4800,
      ".Con": 4801,
      "Ä energy": 4802,
      "like": 4803,
      ".string": 4804,
      "ington": 4805,
      ")*": 4806,
      "yy": 4807,
      "Ä profession": 4808,
      "irth": 4809,
      "Ä seg": 4810,
      "Ã¦Ä¾": 4811,
      "Ä hor": 4812,
      "iers": 4813,
      "can": 4814,
      "Ä behind": 4815,
      "Product": 4816,
      "fg": 4817,
      "Ä Sk": 4818,
      ".jpg": 4819,
      "?:": 4820,
      "];ÄŠÄŠ": 4821,
      "Ä callback": 4822,
      "Ä Http": 4823,
      "Ã‘Ä®": 4824,
      "long": 4825,
      "MS": 4826,
      "ATH": 4827,
      "Ä raise": 4828,
      "Ä wanted": 4829,
      "rown": 4830,
      "utor": 4831,
      "lt": 4832,
      "]=": 4833,
      "eline": 4834,
      "MA": 4835,
      "Ä separ": 4836,
      "cs": 4837,
      "semb": 4838,
      "Dis": 4839,
      "bserv": 4840,
      "Ä Will": 4841,
      "Ä policy": 4842,
      "Ä third": 4843,
      "phone": 4844,
      "Ä bed": 4845,
      "/g": 4846,
      ".__": 4847,
      "Ä Inc": 4848,
      "izing": 4849,
      ".remove": 4850,
      "instance": 4851,
      ".type": 4852,
      "Ä serv": 4853,
      "Each": 4854,
      "Ä har": 4855,
      "Ä Message": 4856,
      "(key": 4857,
      "SELECT": 4858,
      "Pos": 4859,
      "));ÄÄŠ": 4860,
      "Ä recomm": 4861,
      "Ä training": 4862,
      "Ä Ent": 4863,
      "Ä Char": 4864,
      "icht": 4865,
      "(file": 4866,
      "Ä prior": 4867,
      "Game": 4868,
      "Ä exit": 4869,
      "Params": 4870,
      ".core": 4871,
      "PC": 4872,
      "nes": 4873,
      "anced": 4874,
      "(request": 4875,
      "Password": 4876,
      "}>ÄŠ": 4877,
      "Ä mag": 4878,
      "Ä release": 4879,
      "Ä shall": 4880,
      "udent": 4881,
      "Ä South": 4882,
      "ando": 4883,
      ":'": 4884,
      ".TabIndex": 4885,
      "sk": 4886,
      "anner": 4887,
      "isset": 4888,
      "Ä outside": 4889,
      "ledge": 4890,
      "Ä Ã¥": 4891,
      "Ä Rob": 4892,
      "Ä imm": 4893,
      "!ÄŠ": 4894,
      "Ä Web": 4895,
      "Des": 4896,
      "BC": 4897,
      "ancial": 4898,
      "Route": 4899,
      "Dec": 4900,
      "ferences": 4901,
      "Ä purch": 4902,
      "Ä Model": 4903,
      "ctor": 4904,
      "gn": 4905,
      "_start": 4906,
      "_un": 4907,
      ".*": 4908,
      "ises": 4909,
      "Ä ground": 4910,
      "Ä unique": 4911,
      "Ä beaut": 4912,
      "{\"": 4913,
      "Ä pour": 4914,
      "Ä Oct": 4915,
      "Ä tree": 4916,
      "sets": 4917,
      "_res": 4918,
      "')->": 4919,
      "_reg": 4920,
      "(\"\\": 4921,
      "Ä byte": 4922,
      "Bl": 4923,
      "Ä dating": 4924,
      "Ä matter": 4925,
      "Ä Rem": 4926,
      "Ä '../": 4927,
      "Ä Aug": 4928,
      "Ä La": 4929,
      "Ä $(": 4930,
      "ournal": 4931,
      "iam": 4932,
      "Ä shows": 4933,
      "write": 4934,
      "Ä ball": 4935,
      "Ä simply": 4936,
      "Ä fast": 4937,
      "Ä memory": 4938,
      "ASS": 4939,
      "Ä Of": 4940,
      "oved": 4941,
      "ante": 4942,
      "aul": 4943,
      "istry": 4944,
      ")));ÄŠ": 4945,
      "Ä fit": 4946,
      "<string": 4947,
      "Ä political": 4948,
      "ancel": 4949,
      "_.": 4950,
      "card": 4951,
      ".current": 4952,
      "och": 4953,
      "_image": 4954,
      "\\t": 4955,
      "#ÄŠ": 4956,
      "(L": 4957,
      "Ä industry": 4958,
      "coming": 4959,
      "Ä extra": 4960,
      "Ä reported": 4961,
      ".start": 4962,
      "Ä resources": 4963,
      "Ä img": 4964,
      "flow": 4965,
      "_EX": 4966,
      "(null": 4967,
      "Ä Pre": 4968,
      "Ä wrong": 4969,
      "interface": 4970,
      "Parameter": 4971,
      "ners": 4972,
      "Ã¡Â»": 4973,
      "ture": 4974,
      "ersist": 4975,
      "ountry": 4976,
      "Ä seems": 4977,
      "alance": 4978,
      "dest": 4979,
      "Ä‰String": 4980,
      "Ä maint": 4981,
      "Ä unit": 4982,
      "acters": 4983,
      "Ä TR": 4984,
      "iful": 4985,
      "exports": 4986,
      "project": 4987,
      "Application": 4988,
      "legate": 4989,
      "Ä takes": 4990,
      "term": 4991,
      "Ä etc": 4992,
      "uster": 4993,
      "Ä appear": 4994,
      "address": 4995,
      "Ä fem": 4996,
      "hs": 4997,
      "Ä hom": 4998,
      ",-": 4999,
      "Ä difficult": 5000,
      "Ä coming": 5001,
      "Open": 5002,
      "Ä settings": 5003,
      "Ä War": 5004,
      "Ä Then": 5005,
      "Ä autom": 5006,
      "Ä Foundation": 5007,
      "Ä quite": 5008,
      "Description": 5009,
      "Ä blog": 5010,
      "iqu": 5011,
      "PS": 5012,
      "_field": 5013,
      "Json": 5014,
      "SSION": 5015,
      "Ä Sch": 5016,
      "Ä LO": 5017,
      "Ä descri": 5018,
      "Ä everyone": 5019,
      "Ä pretty": 5020,
      "Ä longer": 5021,
      "Ä menu": 5022,
      "Ä currently": 5023,
      "sec": 5024,
      "Ä relationship": 5025,
      "################################": 5026,
      "Ä Map": 5027,
      "aset": 5028,
      "Ä parameters": 5029,
      "Ä crush": 5030,
      "\"ÄÄŠ": 5031,
      "ILITY": 5032,
      "igration": 5033,
      "Ä cout": 5034,
      "total": 5035,
      "Ä names": 5036,
      "ndef": 5037,
      "\");": 5038,
      "riend": 5039,
      "ynamic": 5040,
      "Ä effort": 5041,
      "Ä actual": 5042,
      "Ä fields": 5043,
      "OUN": 5044,
      "ters": 5045,
      "Ä fix": 5046,
      "_model": 5047,
      "Ä cases": 5048,
      "CA": 5049,
      "My": 5050,
      "Interface": 5051,
      "Ä SE": 5052,
      "]]": 5053,
      "alle": 5054,
      "Ä National": 5055,
      "Ä ArrayList": 5056,
      "inline": 5057,
      ".V": 5058,
      "ara": 5059,
      "refix": 5060,
      "asc": 5061,
      "Reader": 5062,
      "Ä ÃÂ¿": 5063,
      "astic": 5064,
      "(()": 5065,
      "Cl": 5066,
      ".annotation": 5067,
      "Ä performance": 5068,
      "aily": 5069,
      ".toString": 5070,
      ".net": 5071,
      "views": 5072,
      ".end": 5073,
      "ayers": 5074,
      "late": 5075,
      "Ä Apr": 5076,
      "ederal": 5077,
      "'])": 5078,
      ".body": 5079,
      "Ä higher": 5080,
      "_fl": 5081,
      "cr": 5082,
      "alert": 5083,
      "_node": 5084,
      "Ä Google": 5085,
      "Ä itself": 5086,
      "Auth": 5087,
      "urrency": 5088,
      "Ä significant": 5089,
      "append": 5090,
      "Ä respect": 5091,
      "strap": 5092,
      "Ä una": 5093,
      "riteria": 5094,
      "PORT": 5095,
      ".apache": 5096,
      "Output": 5097,
      "Ä progress": 5098,
      "Ä mid": 5099,
      "Ä Microsoft": 5100,
      "Ä resource": 5101,
      "ablish": 5102,
      "Ä dim": 5103,
      ".load": 5104,
      ".App": 5105,
      "Ä direction": 5106,
      "Ä additional": 5107,
      "Ä Ä Ä Ä Ä Ä Ä Ä Ä Ä Ä Ä Ä Ä Ä Ä Ä Ä Ä Ä Ä Ä Ä Ä ": 5108,
      "Ä numbers": 5109,
      "Ä companies": 5110,
      ".Th": 5111,
      "Ä sound": 5112,
      "username": 5113,
      "Ä statement": 5114,
      "Ä alert": 5115,
      "Ä contract": 5116,
      "home": 5117,
      "_length": 5118,
      ".Component": 5119,
      "ev": 5120,
      ".Ex": 5121,
      "Ã¯Â¼Ä¼": 5122,
      "\";": 5123,
      "Ä High": 5124,
      "Ä )ÄŠÄŠ": 5125,
      "Ä Point": 5126,
      "oph": 5127,
      "Ä lines": 5128,
      "->_": 5129,
      "\")ÄŠÄŠ": 5130,
      "ox": 5131,
      "application": 5132,
      "Ä ]ÄŠ": 5133,
      "ÄŠÄŠÄŠÄŠÄŠÄŠ": 5134,
      "Ä soon": 5135,
      "ctions": 5136,
      "inger": 5137,
      "Ä join": 5138,
      "Ä Pe": 5139,
      "Ä Ã«": 5140,
      "Ä las": 5141,
      ".E": 5142,
      "css": 5143,
      "/or": 5144,
      "Ä Start": 5145,
      "Ä TO": 5146,
      "Ä subs": 5147,
      "conn": 5148,
      "components": 5149,
      "DEBUG": 5150,
      "quare": 5151,
      "Function": 5152,
      "endar": 5153,
      ".index": 5154,
      "Ä fill": 5155,
      "Ã„Ä»": 5156,
      "Ä choose": 5157,
      "how": 5158,
      "Ä America": 5159,
      "assets": 5160,
      "------------": 5161,
      "Ä Value": 5162,
      "Ä office": 5163,
      "Ä veh": 5164,
      "Ä transform": 5165,
      "Ä Art": 5166,
      "Ä inde": 5167,
      "Ä fn": 5168,
      "Ä implements": 5169,
      "ango": 5170,
      "plete": 5171,
      "+\"": 5172,
      "tmp": 5173,
      "amily": 5174,
      "Ä hash": 5175,
      "missions": 5176,
      "EST": 5177,
      "gt": 5178,
      "Provider": 5179,
      "Ä Ä Ä Ä Ä Ä Ä Ä Ä Ä Ä Ä Ä Ä Ä Ä Ä Ä Ä Ä Ä Ä ": 5180,
      "Ä flag": 5181,
      "Ä particip": 5182,
      "den": 5183,
      "Ä Returns": 5184,
      "Ä note": 5185,
      "ÃƒÂ¼r": 5186,
      "pm": 5187,
      "ideos": 5188,
      "Ä specified": 5189,
      "Ä EN": 5190,
      "ester": 5191,
      "olid": 5192,
      "Ä upon": 5193,
      "(std": 5194,
      "Ä‰v": 5195,
      "Ä '\\": 5196,
      "uz": 5197,
      "Ä vert": 5198,
      "Ä vict": 5199,
      "Ä‰self": 5200,
      "Ä \"$": 5201,
      ".k": 5202,
      "Ä groups": 5203,
      "github": 5204,
      "lang": 5205,
      "Ä mut": 5206,
      "TO": 5207,
      "Ä ve": 5208,
      "Ä Please": 5209,
      ";ÄŠÄŠÄŠ": 5210,
      "access": 5211,
      "Ä {\"": 5212,
      "rea": 5213,
      "Ä risk": 5214,
      "icker": 5215,
      "oggle": 5216,
      "Ä‰while": 5217,
      "ANG": 5218,
      ".send": 5219,
      "Ä woman": 5220,
      "Ä gets": 5221,
      "Ä ign": 5222,
      "Ä Id": 5223,
      "_log": 5224,
      "ONE": 5225,
      "Ä evid": 5226,
      "Ä Har": 5227,
      "_sub": 5228,
      "Ä endl": 5229,
      "Ä included": 5230,
      "());ÄŠÄŠ": 5231,
      "Ä Ap": 5232,
      "igr": 5233,
      "Ä sem": 5234,
      "Ä Black": 5235,
      "doc": 5236,
      "_table": 5237,
      "Ä Ä Ä Ä Ä Ä Ä Ä Ä Ä Ä Ä Ä Ä Ä Ä Ä Ä Ä Ä Ä Ä Ä Ä Ä Ä Ä Ä Ä Ä Ä Ä Ä Ä Ä Ä Ä Ä Ä Ä Ä Ä Ä Ä Ä Ä Ä Ä Ä Ä Ä Ä Ä Ä Ä Ä Ä Ä Ä Ä Ä Ä Ä Ä ": 5238,
      "-up": 5239,
      "Ä cause": 5240,
      "Ä ..": 5241,
      "Ä van": 5242,
      "_dict": 5243,
      "Ä focus": 5244,
      "IND": 5245,
      "CESS": 5246,
      ".Log": 5247,
      "Ä multiple": 5248,
      "ido": 5249,
      "Ä regard": 5250,
      "-M": 5251,
      "andler": 5252,
      "ourse": 5253,
      "Ä deg": 5254,
      ".U": 5255,
      "Ä addition": 5256,
      "Ä various": 5257,
      "Ä receive": 5258,
      "ÃÂµÃÂ½": 5259,
      "Ä HT": 5260,
      "Obj": 5261,
      "DF": 5262,
      "Ä increase": 5263,
      "Ä Open": 5264,
      "];": 5265,
      "Ä commit": 5266,
      "?ÄŠ": 5267,
      "ategories": 5268,
      "atory": 5269,
      "ship": 5270,
      "Ä Mich": 5271,
      "Ä html": 5272,
      "romise": 5273,
      "Ä leave": 5274,
      "Ä strateg": 5275,
      "aven": 5276,
      "Ä Console": 5277,
      "known": 5278,
      "-n": 5279,
      "_LE": 5280,
      ".component": 5281,
      "Ä bre": 5282,
      "Session": 5283,
      "iance": 5284,
      "Ä align": 5285,
      "typedef": 5286,
      "_result": 5287,
      "Ä WHERE": 5288,
      ".split": 5289,
      "Ä reading": 5290,
      "FAULT": 5291,
      "Ä clo": 5292,
      "Ä notice": 5293,
      "_pr": 5294,
      "arter": 5295,
      "Ä lock": 5296,
      "Ä standard": 5297,
      "etic": 5298,
      "ellow": 5299,
      "Ä padding": 5300,
      "Ä His": 5301,
      "Ä states": 5302,
      "_cast": 5303,
      "(P": 5304,
      "aa": 5305,
      "Ä internal": 5306,
      "ean": 5307,
      "Ä PRO": 5308,
      "Ä Key": 5309,
      "Ä especially": 5310,
      "ming": 5311,
      "Ä cross": 5312,
      "Ä national": 5313,
      "_object": 5314,
      "filter": 5315,
      "Ä script": 5316,
      ".update": 5317,
      "_i": 5318,
      "Ä Assert": 5319,
      "/core": 5320,
      "%%%%": 5321,
      "Ä problems": 5322,
      "istor": 5323,
      "Ä .=": 5324,
      "Ä arch": 5325,
      "Ä written": 5326,
      "Ä milit": 5327,
      "MENT": 5328,
      ".ch": 5329,
      "cape": 5330,
      "Ä Mus": 5331,
      "_config": 5332,
      "Ä API": 5333,
      "foot": 5334,
      "Ä images": 5335,
      "endl": 5336,
      ".In": 5337,
      "First": 5338,
      "Ä platform": 5339,
      ".prot": 5340,
      "Option": 5341,
      "ste": 5342,
      "Ä TODO": 5343,
      "Ä force": 5344,
      ".cont": 5345,
      "Ä‰echo": 5346,
      "Ä Dav": 5347,
      "Ptr": 5348,
      "(B": 5349,
      "RT": 5350,
      "Ä Base": 5351,
      "]['": 5352,
      "Ä announc": 5353,
      "console": 5354,
      "Ä Py": 5355,
      "ds": 5356,
      ".as": 5357,
      "Ä prevent": 5358,
      "apan": 5359,
      "Ä {'": 5360,
      "}</": 5361,
      "Ä Service": 5362,
      "Ä Sen": 5363,
      "ador": 5364,
      "profile": 5365,
      "Top": 5366,
      "Ä iter": 5367,
      "po": 5368,
      "IES": 5369,
      "JSON": 5370,
      "IE": 5371,
      "iant": 5372,
      "Ã£Ä¢Ä£": 5373,
      "_j": 5374,
      "Ä Sept": 5375,
      "_map": 5376,
      "bum": 5377,
      "(context": 5378,
      "Ä Home": 5379,
      "ians": 5380,
      "GB": 5381,
      "Ä living": 5382,
      "Ä pattern": 5383,
      "(input": 5384,
      "icient": 5385,
      "Core": 5386,
      "Ä entity": 5387,
      "Ä integ": 5388,
      "Changed": 5389,
      "Ä useful": 5390,
      ".info": 5391,
      "Ä tool": 5392,
      "(item": 5393,
      "Ä ok": 5394,
      "Ä feed": 5395,
      "IX": 5396,
      "ÃƒÂ©s": 5397,
      "Ä News": 5398,
      "remove": 5399,
      "erry": 5400,
      "Ä‰Ä‰Ä‰Ä‰Ä‰Ä‰Ä‰Ä‰Ä‰": 5401,
      "ipment": 5402,
      "ares": 5403,
      "Do": 5404,
      "Current": 5405,
      ".content": 5406,
      ".Group": 5407,
      "ustral": 5408,
      "Ä Ã‘Ä£": 5409,
      "})": 5410,
      "Ä popular": 5411,
      "Ä stre": 5412,
      "Ä methods": 5413,
      "_ERROR": 5414,
      "Left": 5415,
      "cal": 5416,
      "bsp": 5417,
      ".ToString": 5418,
      "Ä dir": 5419,
      "Ä allowed": 5420,
      "Ä impact": 5421,
      "\")]ÄŠ": 5422,
      ".config": 5423,
      "Ä elements": 5424,
      "Ä prote": 5425,
      "Ä train": 5426,
      ".tr": 5427,
      "rs": 5428,
      "Ä Republic": 5429,
      "Ä Task": 5430,
      "aries": 5431,
      "(D": 5432,
      "(get": 5433,
      "Ã¢Ä¢Â¦ÄŠÄŠ": 5434,
      "Ä related": 5435,
      "Ä vers": 5436,
      "Ä sil": 5437,
      "Ä \"\";ÄŠ": 5438,
      "Ä cmd": 5439,
      "Ä technology": 5440,
      ".width": 5441,
      "Float": 5442,
      "Ä Use": 5443,
      "Body": 5444,
      "should": 5445,
      ".join": 5446,
      "Font": 5447,
      "llum": 5448,
      "ycle": 5449,
      "Ä Brit": 5450,
      "Ä mit": 5451,
      "Ä scale": 5452,
      "Ä (_": 5453,
      "ernel": 5454,
      "\"))ÄŠ": 5455,
      "Ä score": 5456,
      "/v": 5457,
      "Ä student": 5458,
      "UC": 5459,
      ".show": 5460,
      "Ä average": 5461,
      "Enabled": 5462,
      "(ex": 5463,
      "common": 5464,
      "imation": 5465,
      ":@\"": 5466,
      "chie": 5467,
      "Ä ...ÄŠÄŠ": 5468,
      "river": 5469,
      "Ä March": 5470,
      "category": 5471,
      "fin": 5472,
      "Ä court": 5473,
      "ÃÂ²": 5474,
      "Server": 5475,
      "Ä container": 5476,
      "-st": 5477,
      "_for": 5478,
      "Ä parts": 5479,
      "Ä decision": 5480,
      "obs": 5481,
      "oub": 5482,
      "mitted": 5483,
      "Ä $('#": 5484,
      "Ä saw": 5485,
      "Ä approach": 5486,
      "ICE": 5487,
      "Ä saying": 5488,
      "Ä anyone": 5489,
      "meta": 5490,
      "SD": 5491,
      "Ä song": 5492,
      "display": 5493,
      "Oper": 5494,
      "outes": 5495,
      "Ä channel": 5496,
      "Ä changed": 5497,
      "ÃƒÂª": 5498,
      "Ä finally": 5499,
      "_number": 5500,
      "Please": 5501,
      "Ã Â¤": 5502,
      "oring": 5503,
      "-re": 5504,
      "Ä kill": 5505,
      "Ä drug": 5506,
      "window": 5507,
      "Ä convert": 5508,
      "ombre": 5509,
      "Ä ways": 5510,
      "Helper": 5511,
      "Ä First": 5512,
      "(__": 5513,
      "urity": 5514,
      "Ä Windows": 5515,
      "ees": 5516,
      "Ä mat": 5517,
      "rapper": 5518,
      "Ä plus": 5519,
      "anges": 5520,
      "\"].": 5521,
      "azon": 5522,
      "/t": 5523,
      "lat": 5524,
      "aste": 5525,
      "Ä profile": 5526,
      "Ä ready": 5527,
      "#ifndef": 5528,
      "rote": 5529,
      "Ä sense": 5530,
      "Gener": 5531,
      "Ä Config": 5532,
      "omy": 5533,
      "Ä June": 5534,
      "Ä latest": 5535,
      "Ä saf": 5536,
      "Ä region": 5537,
      "Ä deep": 5538,
      "witch": 5539,
      "Ä Park": 5540,
      "}`": 5541,
      "Ä From": 5542,
      "II": 5543,
      "Ä cv": 5544,
      "Ä reach": 5545,
      "Ä counter": 5546,
      "Ä Work": 5547,
      "Ä URL": 5548,
      "Ä Update": 5549,
      "',ÄÄŠ": 5550,
      "Ä immedi": 5551,
      "close": 5552,
      "ados": 5553,
      "ferred": 5554,
      "Ä weeks": 5555,
      "urg": 5556,
      "Ä damage": 5557,
      "Ä lost": 5558,
      "ani": 5559,
      "_lo": 5560,
      "Ä himself": 5561,
      "Ä dog": 5562,
      ")]ÄŠ": 5563,
      "Ã¯Â¿": 5564,
      "pir": 5565,
      "tt": 5566,
      "Ä paper": 5567,
      "Ä thems": 5568,
      "second": 5569,
      "Ä staff": 5570,
      "Ä Input": 5571,
      "\"+": 5572,
      "Ä Facebook": 5573,
      "Ä alloc": 5574,
      "Ä sched": 5575,
      "ACE": 5576,
      "Ä themselves": 5577,
      "Ä Component": 5578,
      "Ä driver": 5579,
      "ja": 5580,
      "(path": 5581,
      "Ä category": 5582,
      "alls": 5583,
      "pu": 5584,
      "lluminate": 5585,
      "Ä Action": 5586,
      ".button": 5587,
      "Ä GL": 5588,
      "istics": 5589,
      "Ä oil": 5590,
      "Ä stock": 5591,
      ">'": 5592,
      "Ä dead": 5593,
      "VAL": 5594,
      "QUE": 5595,
      "************************************************************************": 5596,
      "Ä charg": 5597,
      "Return": 5598,
      "Ä ful": 5599,
      "dom": 5600,
      "Ä rules": 5601,
      "Ä modify": 5602,
      "Ä eval": 5603,
      "ham": 5604,
      "atement": 5605,
      "\\<": 5606,
      "ula": 5607,
      "=False": 5608,
      "RA": 5609,
      "Ä contains": 5610,
      "Ä stack": 5611,
      "mar": 5612,
      "Ä {}ÄŠ": 5613,
      "Ä undefined": 5614,
      "Ass": 5615,
      "Ä China": 5616,
      "vey": 5617,
      "*ÄŠ": 5618,
      "Ä playing": 5619,
      ")/": 5620,
      "actor": 5621,
      "Ä bottom": 5622,
      "lier": 5623,
      "Ä Number": 5624,
      "Ä couple": 5625,
      "DC": 5626,
      "Ä SO": 5627,
      "gor": 5628,
      ".setText": 5629,
      "success": 5630,
      "command": 5631,
      "Filter": 5632,
      "Ä Our": 5633,
      "_item": 5634,
      "Ä ctx": 5635,
      "Ä road": 5636,
      "Version": 5637,
      "case": 5638,
      "urt": 5639,
      "avior": 5640,
      "ych": 5641,
      "sembly": 5642,
      "Ä Product": 5643,
      "Ä held": 5644,
      "afe": 5645,
      "Ä includes": 5646,
      "<quote": 5647,
      "Ä avoid": 5648,
      "Ä Fin": 5649,
      "Ä Mod": 5650,
      "Ä tab": 5651,
      "ano": 5652,
      "ÃƒÂ±": 5653,
      "ipping": 5654,
      "-e": 5655,
      "Ä insert": 5656,
      "target": 5657,
      "chan": 5658,
      ".Model": 5659,
      "IME": 5660,
      "\\ÄŠ": 5661,
      "Ä machine": 5662,
      "avy": 5663,
      "Ä NO": 5664,
      "Ä Inter": 5665,
      "Ä operation": 5666,
      "modal": 5667,
      "Tag": 5668,
      "]:": 5669,
      "Ä production": 5670,
      "Ä areas": 5671,
      "Ä ren": 5672,
      "_from": 5673,
      "nbsp": 5674,
      "Ä operator": 5675,
      "men": 5676,
      "apped": 5677,
      "_per": 5678,
      "zen": 5679,
      "(\".": 5680,
      ".save": 5681,
      "=\"{{": 5682,
      "Ä tor": 5683,
      "(response": 5684,
      "Ä candid": 5685,
      "Ä conv": 5686,
      "ailed": 5687,
      "Ä Lib": 5688,
      "comp": 5689,
      "ura": 5690,
      "Ã¯Â¿Â½": 5691,
      "Ä Here": 5692,
      "Ä argument": 5693,
      "hood": 5694,
      "Ä establish": 5695,
      "ography": 5696,
      "Ä onClick": 5697,
      "ambda": 5698,
      "Ä sch": 5699,
      "Ä movie": 5700,
      "Ä sec": 5701,
      "Ä activity": 5702,
      "Ã˜Â§": 5703,
      "Ä sql": 5704,
      "_all": 5705,
      "incip": 5706,
      "Ä provides": 5707,
      "Ä sys": 5708,
      "acket": 5709,
      "Ä wasn": 5710,
      "Ä uses": 5711,
      "Ä Function": 5712,
      ".google": 5713,
      "Ä Result": 5714,
      "Visible": 5715,
      "agma": 5716,
      "elcome": 5717,
      "Ä Sy": 5718,
      "Ä Cent": 5719,
      "ALSE": 5720,
      "aciÃƒÂ³n": 5721,
      "EXT": 5722,
      "Ä license": 5723,
      "Ä Long": 5724,
      "Ä accom": 5725,
      "Ä ability": 5726,
      ".height": 5727,
      "Active": 5728,
      "ological": 5729,
      "oly": 5730,
      ")),": 5731,
      ".Se": 5732,
      "Ä parameter": 5733,
      "prite": 5734,
      "ABILITY": 5735,
      ".service": 5736,
      "Ä Group": 5737,
      "_query": 5738,
      "Ä Item": 5739,
      "ining": 5740,
      "Ä jud": 5741,
      "ims": 5742,
      "fix": 5743,
      "inder": 5744,
      "agram": 5745,
      "Ä functions": 5746,
      "Ä experi": 5747,
      "Ä Em": 5748,
      "Ä rot": 5749,
      "Ä pen": 5750,
      ".btn": 5751,
      "Ä AS": 5752,
      "#ifdef": 5753,
      "Ä choice": 5754,
      "Ä Page": 5755,
      "_PRO": 5756,
      "QU": 5757,
      "Ã¥Ä±": 5758,
      "antity": 5759,
      "Ã‚Åƒ": 5760,
      "words": 5761,
      "Ä readonly": 5762,
      "Ä flex": 5763,
      "protected": 5764,
      "Ä Any": 5765,
      "Ä characters": 5766,
      "enced": 5767,
      "Ä July": 5768,
      "iler": 5769,
      "Card": 5770,
      "urance": 5771,
      "Ä rev": 5772,
      ".event": 5773,
      "aly": 5774,
      "Ä wonder": 5775,
      "Ä Port": 5776,
      "Ä legal": 5777,
      "role": 5778,
      "Ä ten": 5779,
      "Ä goes": 5780,
      "MP": 5781,
      "white": 5782,
      "):ÄÄŠ": 5783,
      "))ÄÄŠ": 5784,
      "Ä reference": 5785,
      "Ä mis": 5786,
      "Ä Project": 5787,
      "icks": 5788,
      ">&": 5789,
      "CON": 5790,
      "Ä repl": 5791,
      "Ä regular": 5792,
      "Storage": 5793,
      "ramework": 5794,
      "Ä goal": 5795,
      "Ä touch": 5796,
      ".widget": 5797,
      "Ä built": 5798,
      "des": 5799,
      "Part": 5800,
      "(re": 5801,
      "Ä worth": 5802,
      "hib": 5803,
      "game": 5804,
      "Ä ÃÂ²": 5805,
      "acion": 5806,
      "Ä White": 5807,
      "(type": 5808,
      "(`": 5809,
      "Ä natural": 5810,
      "Ä inj": 5811,
      "Ä calcul": 5812,
      "Ä April": 5813,
      ".List": 5814,
      "Ä associated": 5815,
      "Ä‰System": 5816,
      "~~": 5817,
      "=[": 5818,
      "Ä storage": 5819,
      "Ä bytes": 5820,
      "Ä travel": 5821,
      "Ä sou": 5822,
      "Ä passed": 5823,
      "!=": 5824,
      "ascript": 5825,
      ".open": 5826,
      "Ä grid": 5827,
      "Ä bus": 5828,
      "Ä recogn": 5829,
      "Ab": 5830,
      "Ä hon": 5831,
      "Ä Center": 5832,
      "Ä prec": 5833,
      "build": 5834,
      "HTML": 5835,
      "Ä San": 5836,
      "Ä countries": 5837,
      "aled": 5838,
      "token": 5839,
      "kt": 5840,
      "Ä qual": 5841,
      "Last": 5842,
      "adow": 5843,
      "Ä manufact": 5844,
      "idad": 5845,
      "jango": 5846,
      "Next": 5847,
      "xf": 5848,
      ".a": 5849,
      "Ä porno": 5850,
      "Ä PM": 5851,
      "erve": 5852,
      "iting": 5853,
      "_th": 5854,
      "ci": 5855,
      "=None": 5856,
      "gs": 5857,
      "Ä login": 5858,
      "atives": 5859,
      "']);ÄŠ": 5860,
      "Ã„Ä§": 5861,
      "Ä ill": 5862,
      "IA": 5863,
      "children": 5864,
      "DO": 5865,
      "Ä levels": 5866,
      "Ä {{": 5867,
      "Ä looks": 5868,
      "Ä \"#": 5869,
      "ToString": 5870,
      "Ä necessary": 5871,
      "Ä Ä Ä ÄŠ": 5872,
      "cell": 5873,
      "Entry": 5874,
      "Ä '#": 5875,
      "Ä extrem": 5876,
      "Selector": 5877,
      "Ä placeholder": 5878,
      "Load": 5879,
      "Ä released": 5880,
      "ORE": 5881,
      "Enumer": 5882,
      "Ä TV": 5883,
      "SET": 5884,
      "inq": 5885,
      "Press": 5886,
      "Ä Department": 5887,
      "Ä properties": 5888,
      "Ä respond": 5889,
      "Search": 5890,
      "ael": 5891,
      "Ä requ": 5892,
      "Ä Book": 5893,
      "/ÄŠ": 5894,
      "(st": 5895,
      "Ä financial": 5896,
      "icket": 5897,
      "_input": 5898,
      "Ä threat": 5899,
      "(in": 5900,
      "Strip": 5901,
      "Ã¬Ä¿": 5902,
      "ÃƒÂ§ÃƒÂ£o": 5903,
      "Ä evidence": 5904,
      "));": 5905,
      "Ä Bro": 5906,
      "Ä [];ÄŠ": 5907,
      "Ä ou": 5908,
      "buf": 5909,
      "Script": 5910,
      "dat": 5911,
      "Ä rule": 5912,
      "#import": 5913,
      "=\"/": 5914,
      "Serial": 5915,
      "Ä starting": 5916,
      "[index": 5917,
      "ae": 5918,
      "Ä contrib": 5919,
      "session": 5920,
      "_new": 5921,
      "utable": 5922,
      "ober": 5923,
      "Ä \"./": 5924,
      "Ä logger": 5925,
      "Ä recently": 5926,
      "Ä returned": 5927,
      "ÄÄÄŠ": 5928,
      ")))ÄŠ": 5929,
      "itions": 5930,
      "Ä seek": 5931,
      "Ä communic": 5932,
      "Ä \".": 5933,
      "Ä username": 5934,
      "ECT": 5935,
      "DS": 5936,
      "Ä otherwise": 5937,
      "Ä German": 5938,
      ".aw": 5939,
      "Adapter": 5940,
      "ixel": 5941,
      "Ä systems": 5942,
      "Ä drop": 5943,
      "Ä structure": 5944,
      "Ä $(\"#": 5945,
      "encies": 5946,
      "anning": 5947,
      "Ä Link": 5948,
      "Ä Response": 5949,
      "Ä stri": 5950,
      "Ã…Â¼": 5951,
      "Ä DB": 5952,
      "Ã¦Ä¹": 5953,
      "android": 5954,
      "submit": 5955,
      "otion": 5956,
      "(@": 5957,
      ".test": 5958,
      "ÄŠÄŠÄŠÄŠÄŠÄŠÄŠÄŠ": 5959,
      "];ÄÄŠ": 5960,
      "Ä directly": 5961,
      "Ä \"%": 5962,
      "ris": 5963,
      "elta": 5964,
      "AIL": 5965,
      "){ÄÄŠ": 5966,
      "mine": 5967,
      "Ä Ä Ä Ä Ä Ä Ä Ä Ä Ä Ä Ä Ä Ä Ä Ä Ä Ä Ä Ä Ä Ä Ä Ä Ä Ä ": 5968,
      "(k": 5969,
      "bon": 5970,
      "asic": 5971,
      "pite": 5972,
      "___": 5973,
      "Max": 5974,
      "Ä errors": 5975,
      "Ä While": 5976,
      "Ä arguments": 5977,
      "Ä ensure": 5978,
      "Right": 5979,
      "-based": 5980,
      "Web": 5981,
      "Ä -=": 5982,
      "Ä introdu": 5983,
      "Ä Inst": 5984,
      "Ä Wash": 5985,
      "ordin": 5986,
      "join": 5987,
      "Database": 5988,
      "Ä grad": 5989,
      "Ä usually": 5990,
      "ITE": 5991,
      "Props": 5992,
      "?>ÄŠ": 5993,
      "Ä Go": 5994,
      "@Override": 5995,
      "REF": 5996,
      "Ä ip": 5997,
      "Ä Austral": 5998,
      "Ä ist": 5999,
      "ViewById": 6000,
      "Ä serious": 6001,
      "Ä customer": 6002,
      ".prototype": 6003,
      "odo": 6004,
      "cor": 6005,
      "Ä door": 6006,
      "Ä WITHOUT": 6007,
      "Ä plant": 6008,
      "Ä began": 6009,
      "Ä distance": 6010,
      "()).": 6011,
      "Ä chance": 6012,
      "Ä ord": 6013,
      "came": 6014,
      "pragma": 6015,
      "Ä protect": 6016,
      "ragment": 6017,
      "Ä Node": 6018,
      "ening": 6019,
      "Ã‘Ä©": 6020,
      "Ä route": 6021,
      "Ä School": 6022,
      "hi": 6023,
      "Ä neighb": 6024,
      "After": 6025,
      "licit": 6026,
      "Ä contr": 6027,
      "Ä primary": 6028,
      "AA": 6029,
      ".WriteLine": 6030,
      "utils": 6031,
      "Ä bi": 6032,
      "Red": 6033,
      ".Linq": 6034,
      ".object": 6035,
      "Ä leaders": 6036,
      "unities": 6037,
      "Ä gun": 6038,
      "onth": 6039,
      "Ä Dev": 6040,
      "FILE": 6041,
      "Ä comments": 6042,
      "_len": 6043,
      "arrow": 6044,
      "amount": 6045,
      "Range": 6046,
      "sert": 6047,
      "GridView": 6048,
      "Ä updated": 6049,
      "Ä Mo": 6050,
      "Ä inform": 6051,
      "ociety": 6052,
      "ala": 6053,
      "Access": 6054,
      "Ä hab": 6055,
      "Ä creat": 6056,
      "_arg": 6057,
      "Ä January": 6058,
      "Ä Day": 6059,
      "\")ÄÄŠ": 6060,
      "uple": 6061,
      "document": 6062,
      "gorith": 6063,
      "menu": 6064,
      "Ä Over": 6065,
      "bb": 6066,
      ".title": 6067,
      "_out": 6068,
      "Ä led": 6069,
      "uri": 6070,
      "Ä ?></": 6071,
      "gl": 6072,
      "Ä bank": 6073,
      "ayment": 6074,
      "Ä‰printf": 6075,
      "MD": 6076,
      "Ä sample": 6077,
      "Ä hands": 6078,
      "Ä Version": 6079,
      "uario": 6080,
      "Ä offers": 6081,
      "ityEngine": 6082,
      "Ä shape": 6083,
      "Ä sleep": 6084,
      "_point": 6085,
      "Settings": 6086,
      "Ä achie": 6087,
      "Ä sold": 6088,
      "ota": 6089,
      ".bind": 6090,
      "Am": 6091,
      "Ä safe": 6092,
      "Store": 6093,
      "Ä shared": 6094,
      "Ä priv": 6095,
      "_VAL": 6096,
      "Ä sens": 6097,
      "){": 6098,
      "Ä remember": 6099,
      "shared": 6100,
      "element": 6101,
      "Ä shoot": 6102,
      "Vert": 6103,
      "cout": 6104,
      "Ä env": 6105,
      "_label": 6106,
      "Ä >ÄŠ": 6107,
      "run": 6108,
      "Ä scene": 6109,
      "(array": 6110,
      "device": 6111,
      "_title": 6112,
      "agon": 6113,
      "]ÄÄŠ": 6114,
      "aby": 6115,
      "Ä became": 6116,
      "boolean": 6117,
      "Ä park": 6118,
      "Ä Code": 6119,
      "upload": 6120,
      "riday": 6121,
      "Ä September": 6122,
      "Fe": 6123,
      "Ä sen": 6124,
      "cing": 6125,
      "FL": 6126,
      "Col": 6127,
      "uts": 6128,
      "_page": 6129,
      "inn": 6130,
      "Ä implied": 6131,
      "aling": 6132,
      "Ä yourself": 6133,
      ".Count": 6134,
      "conf": 6135,
      "Ä aud": 6136,
      "_init": 6137,
      ".)": 6138,
      "Ä wrote": 6139,
      "NG": 6140,
      ".Error": 6141,
      "Ã¤Â»": 6142,
      ".for": 6143,
      "Ä equal": 6144,
      "Ä Request": 6145,
      "Ä serial": 6146,
      "Ä allows": 6147,
      "XX": 6148,
      "Ä middle": 6149,
      "chor": 6150,
      "ÃƒÂ¸": 6151,
      "erval": 6152,
      ".Column": 6153,
      "reading": 6154,
      "Ä escort": 6155,
      "Ä August": 6156,
      "Ä quickly": 6157,
      "Ä weap": 6158,
      "Ä CG": 6159,
      "ropri": 6160,
      "ho": 6161,
      "Ä cop": 6162,
      "(struct": 6163,
      "Ä Big": 6164,
      "Ä vs": 6165,
      "Ä frequ": 6166,
      ".Value": 6167,
      "Ä actions": 6168,
      "Ä proper": 6169,
      "Ä inn": 6170,
      "Ä objects": 6171,
      "Ä matrix": 6172,
      "avascript": 6173,
      "Ä ones": 6174,
      ".group": 6175,
      "Ä green": 6176,
      "Ä paint": 6177,
      "ools": 6178,
      "ycl": 6179,
      "encode": 6180,
      "olt": 6181,
      "comment": 6182,
      ".api": 6183,
      "Dir": 6184,
      "Ä une": 6185,
      "izont": 6186,
      ".position": 6187,
      "Ä designed": 6188,
      "_val": 6189,
      "avi": 6190,
      "iring": 6191,
      "tab": 6192,
      "Ä layer": 6193,
      "Ä views": 6194,
      "Ä reve": 6195,
      "rael": 6196,
      "Ä ON": 6197,
      "rics": 6198,
      "np": 6199,
      "Ä core": 6200,
      "());ÄÄŠ": 6201,
      "Main": 6202,
      "Ä expert": 6203,
      "Ä‰Ä‰ÄÄŠ": 6204,
      "_en": 6205,
      "Ä />": 6206,
      "utter": 6207,
      "IAL": 6208,
      "ails": 6209,
      "Ä King": 6210,
      "*/ÄŠÄŠ": 6211,
      "Ä Met": 6212,
      "_end": 6213,
      "addr": 6214,
      "ora": 6215,
      "Ä ir": 6216,
      "Min": 6217,
      "Ä surpr": 6218,
      "Ä repe": 6219,
      "Ä directory": 6220,
      "PUT": 6221,
      "-S": 6222,
      "Ä election": 6223,
      "haps": 6224,
      ".pre": 6225,
      "cm": 6226,
      "Values": 6227,
      "Ä \"ÄŠ": 6228,
      "column": 6229,
      "ivil": 6230,
      "Login": 6231,
      "inue": 6232,
      "Ä beautiful": 6233,
      "Ä secret": 6234,
      "(event": 6235,
      "Ä chat": 6236,
      "ums": 6237,
      "Ä origin": 6238,
      "Ä effects": 6239,
      "Ä management": 6240,
      "illa": 6241,
      "tk": 6242,
      "Ä setting": 6243,
      "Ä Cour": 6244,
      "Ä massage": 6245,
      "Ä‰end": 6246,
      "Ä happy": 6247,
      "Ä finish": 6248,
      "Ä camera": 6249,
      "Ä Ver": 6250,
      "Ä Democr": 6251,
      "Ä Her": 6252,
      "(Q": 6253,
      "cons": 6254,
      "ita": 6255,
      "Ä '.": 6256,
      "{}": 6257,
      "Ä‰C": 6258,
      "Ä stuff": 6259,
      "Ä :ÄŠ": 6260,
      "Ä AR": 6261,
      "Task": 6262,
      "hidden": 6263,
      "eros": 6264,
      "IGN": 6265,
      "atio": 6266,
      "Ä Health": 6267,
      "olute": 6268,
      "Enter": 6269,
      "'>": 6270,
      "Ä Twitter": 6271,
      "Ä County": 6272,
      "scribe": 6273,
      "Ä =>ÄŠ": 6274,
      "Ä hy": 6275,
      "fit": 6276,
      "Ä military": 6277,
      "Ä sale": 6278,
      "required": 6279,
      "non": 6280,
      "bootstrap": 6281,
      "hold": 6282,
      "rim": 6283,
      "-old": 6284,
      "Ä Down": 6285,
      "Ä mention": 6286,
      "contact": 6287,
      "_group": 6288,
      "oday": 6289,
      "Ä town": 6290,
      "Ä solution": 6291,
      "uate": 6292,
      "elling": 6293,
      "]->": 6294,
      "otes": 6295,
      "ental": 6296,
      "omen": 6297,
      "ospital": 6298,
      "Ä Sup": 6299,
      "_EN": 6300,
      "Ä slow": 6301,
      "SESSION": 6302,
      "Ä blue": 6303,
      "ago": 6304,
      "Ä lives": 6305,
      "Ä ^": 6306,
      ".un": 6307,
      "inst": 6308,
      "enge": 6309,
      "Ä customers": 6310,
      "Ä cast": 6311,
      "udget": 6312,
      "Ã¯Â¼Ä£": 6313,
      "icens": 6314,
      "Ä determin": 6315,
      "Selected": 6316,
      "_pl": 6317,
      "ueue": 6318,
      "Ä dark": 6319,
      "//ÄŠÄŠ": 6320,
      "si": 6321,
      "thern": 6322,
      "Ä Japan": 6323,
      "/w": 6324,
      "PU": 6325,
      "Ä East": 6326,
      "ovie": 6327,
      "Ä package": 6328,
      "Ä nor": 6329,
      "Ä api": 6330,
      "bot": 6331,
      "\"];ÄŠ": 6332,
      "_post": 6333,
      "ulate": 6334,
      "Ä club": 6335,
      "'));ÄŠ": 6336,
      "Ä loop": 6337,
      "PIO": 6338,
      "ione": 6339,
      "shot": 6340,
      "Initial": 6341,
      "Ä played": 6342,
      "register": 6343,
      "rought": 6344,
      "_max": 6345,
      "acement": 6346,
      "match": 6347,
      "raphics": 6348,
      "AST": 6349,
      "Ä existing": 6350,
      "Ä complex": 6351,
      "DA": 6352,
      ".Ch": 6353,
      ".common": 6354,
      "mo": 6355,
      "Ä '../../": 6356,
      "ito": 6357,
      "Ä analysis": 6358,
      "Ä deliver": 6359,
      "Ä Ä Ä Ä Ä Ä Ä Ä Ä Ä Ä Ä Ä Ä Ä Ä ÄŠ": 6360,
      "idx": 6361,
      "ÃƒÅ‚": 6362,
      "ongo": 6363,
      "Ä English": 6364,
      "<!--": 6365,
      "Ä computer": 6366,
      "ENSE": 6367,
      "Ä pas": 6368,
      "Ä rais": 6369,
      "Hash": 6370,
      "Ä mobile": 6371,
      "Ä owner": 6372,
      "FIG": 6373,
      "Ä Ä Ä Ä Ä Ä Ä Ä Ä Ä Ä Ä Ä Ä Ä Ä Ä Ä Ä Ä Ä Ä Ä Ä Ä Ä Ä Ä Ä Ä Ä Ä Ä Ä Ä Ä Ä Ä Ä Ä Ä Ä Ä Ä Ä Ä Ä Ä Ä Ä Ä ": 6374,
      "thes": 6375,
      "Ä attr": 6376,
      "wd": 6377,
      ".time": 6378,
      "awn": 6379,
      "Ä treatment": 6380,
      "Ä Ac": 6381,
      ".View": 6382,
      "impl": 6383,
      "more": 6384,
      "pass": 6385,
      "Ä ha": 6386,
      ".from": 6387,
      "Ä leading": 6388,
      "FFFF": 6389,
      "(error": 6390,
      ".ui": 6391,
      "atar": 6392,
      "aders": 6393,
      "dates": 6394,
      "Ä zu": 6395,
      "Ä flow": 6396,
      "Target": 6397,
      "Ä involved": 6398,
      "Ä io": 6399,
      "parse": 6400,
      "$_": 6401,
      "hest": 6402,
      ".int": 6403,
      "-item": 6404,
      "asy": 6405,
      "Sp": 6406,
      "Ä shift": 6407,
      "NT": 6408,
      "Ä tf": 6409,
      "_TR": 6410,
      ".web": 6411,
      "CS": 6412,
      "Ä })": 6413,
      "Ä eyes": 6414,
      "_z": 6415,
      "');ÄÄŠ": 6416,
      "iforn": 6417,
      "Ä {@": 6418,
      "Ä nice": 6419,
      ".list": 6420,
      "Ä Ä Ä Ä ÄÄŠ": 6421,
      "Ä floor": 6422,
      "Ä redirect": 6423,
      "Ä UK": 6424,
      "(['": 6425,
      "Ä wish": 6426,
      "Ä capt": 6427,
      "legal": 6428,
      "Ä IO": 6429,
      "Ä stage": 6430,
      ".String": 6431,
      "Ä Afr": 6432,
      "igen": 6433,
      "Ä SH": 6434,
      "Delete": 6435,
      "ells": 6436,
      "Ä solid": 6437,
      "Ä meeting": 6438,
      "Ä worked": 6439,
      "Ä editor": 6440,
      "iny": 6441,
      "ÃÂ¼": 6442,
      "_read": 6443,
      ".Id": 6444,
      "eff": 6445,
      "Offset": 6446,
      "cha": 6447,
      "USER": 6448,
      "Ä‰Ä‰Ä Ä Ä ": 6449,
      "ipped": 6450,
      "Ä dict": 6451,
      "Ä Run": 6452,
      ".hpp": 6453,
      "Ä ang": 6454,
      "xml": 6455,
      "imple": 6456,
      "Ä medical": 6457,
      "_token": 6458,
      "connect": 6459,
      "Ä hour": 6460,
      "Ä controller": 6461,
      "_message": 6462,
      "UID": 6463,
      "Gr": 6464,
      "anded": 6465,
      "_CH": 6466,
      "Ä books": 6467,
      "Ä speak": 6468,
      "aming": 6469,
      "Ä mount": 6470,
      "Record": 6471,
      "Ä‰struct": 6472,
      ".Web": 6473,
      "ondon": 6474,
      "Ä //ÄŠ": 6475,
      "Ä felt": 6476,
      ".Auto": 6477,
      "idge": 6478,
      "_pos": 6479,
      "PR": 6480,
      "Ä modern": 6481,
      "Collection": 6482,
      "_msg": 6483,
      "CD": 6484,
      "Ä Lo": 6485,
      "Ä seconds": 6486,
      "ibly": 6487,
      ".equals": 6488,
      "Ä international": 6489,
      "#pragma": 6490,
      "ooth": 6491,
      "Writer": 6492,
      "iate": 6493,
      "Ä cele": 6494,
      "Ä Bit": 6495,
      "ivo": 6496,
      "ivery": 6497,
      "rd": 6498,
      "HECK": 6499,
      "Ä cache": 6500,
      ".count": 6501,
      "Ä roll": 6502,
      ".Read": 6503,
      "RED": 6504,
      "Ä setup": 6505,
      "izontal": 6506,
      "models": 6507,
      "argv": 6508,
      "Ä considered": 6509,
      "=\"../": 6510,
      "settings": 6511,
      "Ä Rel": 6512,
      "Ä growth": 6513,
      "Ä mix": 6514,
      "Ä Washington": 6515,
      "Ä plt": 6516,
      "Ä IM": 6517,
      "Ã¡Âº": 6518,
      "Ä turned": 6519,
      "Ä DateTime": 6520,
      "Ä Wed": 6521,
      "(url": 6522,
      "Ä \"-": 6523,
      "Ä letter": 6524,
      "Async": 6525,
      "Ä Ä Ä Ä Ä Ä Ä Ä Ä Ä Ä Ä Ä Ä Ä Ä Ä Ä Ä Ä Ä Ä Ä Ä Ä Ä Ä Ä ": 6526,
      "Ä October": 6527,
      "_line": 6528,
      "Ä attention": 6529,
      "Ä collect": 6530,
      "Ä Hash": 6531,
      "Ä imag": 6532,
      "Tree": 6533,
      "Ä situation": 6534,
      "ette": 6535,
      "_no": 6536,
      "IVE": 6537,
      "Ä von": 6538,
      ".target": 6539,
      "Ä knowledge": 6540,
      "Ä drive": 6541,
      ".post": 6542,
      "Ä blood": 6543,
      "Ä cit": 6544,
      "primary": 6545,
      "Ä configuration": 6546,
      "tee": 6547,
      "Ä photo": 6548,
      "isode": 6549,
      "Trace": 6550,
      "Ä gave": 6551,
      "Ä shot": 6552,
      "Ä Air": 6553,
      "Ä mother": 6554,
      "price": 6555,
      "Ä morning": 6556,
      ")){ÄŠ": 6557,
      "-x": 6558,
      "Ä trade": 6559,
      "Ä desc": 6560,
      "Ä &&ÄŠ": 6561,
      "Ä parents": 6562,
      "Api": 6563,
      "Ã¥Äª": 6564,
      "ted": 6565,
      "wer": 6566,
      "Ä Ã¦": 6567,
      "Ä sy": 6568,
      "Ä Ke": 6569,
      "Parser": 6570,
      "Ã¥Ä§": 6571,
      "ancy": 6572,
      "Ä piece": 6573,
      "ifornia": 6574,
      "toString": 6575,
      "ran": 6576,
      "iding": 6577,
      "PTION": 6578,
      "comes": 6579,
      "/lic": 6580,
      ".client": 6581,
      "El": 6582,
      "Long": 6583,
      "Ä professional": 6584,
      "rupt": 6585,
      "va": 6586,
      "Ä completely": 6587,
      "Ä practice": 6588,
      "Ä selection": 6589,
      "Rem": 6590,
      "ini": 6591,
      "Ä cam": 6592,
      "REE": 6593,
      "Ä sites": 6594,
      "pa": 6595,
      "ATUS": 6596,
      "Ã‘Ä£Ã‘Ä¤": 6597,
      "arrant": 6598,
      "*(": 6599,
      "_KEY": 6600,
      "Ä Button": 6601,
      "Ä Friday": 6602,
      "sequ": 6603,
      "Ä reader": 6604,
      "Ä messages": 6605,
      "Ã¨Â¯": 6606,
      "Ä buf": 6607,
      "Ke": 6608,
      "Ä nov": 6609,
      "HP": 6610,
      "Msg": 6611,
      "align": 6612,
      "arily": 6613,
      "Ä ',": 6614,
      "_with": 6615,
      "Ä das": 6616,
      "Ä heard": 6617,
      "atomic": 6618,
      "rial": 6619,
      ")[": 6620,
      "Ä dise": 6621,
      "@end": 6622,
      "Ä gold": 6623,
      "Ä fair": 6624,
      "Ä sales": 6625,
      ".Button": 6626,
      "strict": 6627,
      "save": 6628,
      "Ä measure": 6629,
      "Ä \"+": 6630,
      "ecause": 6631,
      "ViewController": 6632,
      "Ä Table": 6633,
      ".param": 6634,
      "Ä decided": 6635,
      "(((": 6636,
      "INFO": 6637,
      "Ä opportunity": 6638,
      "Te": 6639,
      "ICENSE": 6640,
      "ccording": 6641,
      "ki": 6642,
      "Ä UN": 6643,
      "Ä contain": 6644,
      "Ä manager": 6645,
      "Ä pain": 6646,
      "Ä Fire": 6647,
      "rome": 6648,
      "Ä plans": 6649,
      "Found": 6650,
      "lay": 6651,
      "Ä December": 6652,
      "Ä influ": 6653,
      "ÃƒÂº": 6654,
      "rench": 6655,
      "Ä Ä Ä Ä Ä Ä Ä Ä Ä Ä Ä Ä Ä Ä Ä Ä Ä Ä Ä Ä Ä Ä Ä Ä Ä Ä Ä Ä Ä Ä Ä Ä Ä ": 6656,
      "azing": 6657,
      "brief": 6658,
      "call": 6659,
      "wood": 6660,
      "Ä loaded": 6661,
      "Ä grand": 6662,
      "/f": 6663,
      "imp": 6664,
      "_U": 6665,
      "STR": 6666,
      "Ã¢Ä¢Â¢": 6667,
      "Ä credit": 6668,
      ".Color": 6669,
      "orge": 6670,
      "QUEST": 6671,
      "Ä difference": 6672,
      "Ä PC": 6673,
      "wargs": 6674,
      "Ä pub": 6675,
      "unday": 6676,
      "Ä fra": 6677,
      ".max": 6678,
      "Ä tried": 6679,
      "annels": 6680,
      "send": 6681,
      "Ä reports": 6682,
      "Ä adult": 6683,
      "Ã¤Âº": 6684,
      "Ä consist": 6685,
      "Ä Street": 6686,
      "Ä Program": 6687,
      "SQL": 6688,
      "Matrix": 6689,
      "ouncil": 6690,
      "-A": 6691,
      "Ä‰w": 6692,
      "Ä whose": 6693,
      "Ä relig": 6694,
      "Ä Sex": 6695,
      "Ä gives": 6696,
      "none": 6697,
      ".message": 6698,
      "(G": 6699,
      ".awt": 6700,
      "-right": 6701,
      "Ä November": 6702,
      "ellig": 6703,
      "utive": 6704,
      "Ã„Ä¥": 6705,
      "overn": 6706,
      "Ä easily": 6707,
      "Ä ideas": 6708,
      "Ä ÃÂ½": 6709,
      "/css": 6710,
      "lying": 6711,
      "elle": 6712,
      "Can": 6713,
      "_color": 6714,
      "ÃÂ¾ÃÂ²": 6715,
      "Ä pair": 6716,
      "ngth": 6717,
      "Ä split": 6718,
      "drop": 6719,
      "arty": 6720,
      "ona": 6721,
      "Ä capital": 6722,
      "Ä hear": 6723,
      "Ä exists": 6724,
      "Ä‰log": 6725,
      "emo": 6726,
      "Run": 6727,
      "oi": 6728,
      "Ä parser": 6729,
      "Ä Method": 6730,
      "Ä education": 6731,
      "[k": 6732,
      "Ä library": 6733,
      ">\";ÄŠ": 6734,
      "_UN": 6735,
      "Ä‰std": 6736,
      "oded": 6737,
      "Ä calls": 6738,
      "here": 6739,
      "Rel": 6740,
      "Ä brand": 6741,
      "background": 6742,
      "ga": 6743,
      "_address": 6744,
      "_params": 6745,
      "Category": 6746,
      "Ä India": 6747,
      "_event": 6748,
      "Ä ing": 6749,
      "Render": 6750,
      ".cl": 6751,
      "umpy": 6752,
      "Ä pet": 6753,
      "FC": 6754,
      "Ä Ant": 6755,
      "Ext": 6756,
      "Ä charge": 6757,
      "ened": 6758,
      "grad": 6759,
      "EO": 6760,
      "Ä depend": 6761,
      "Ä .ÄŠÄŠ": 6762,
      "frame": 6763,
      "Ä df": 6764,
      "Ä huge": 6765,
      "Ä PART": 6766,
      "eds": 6767,
      ";;": 6768,
      "Ä AM": 6769,
      "Ä basic": 6770,
      "Ä Let": 6771,
      "lich": 6772,
      "Ä arm": 6773,
      "Ä star": 6774,
      "Ä federal": 6775,
      "Work": 6776,
      "Ä carry": 6777,
      "Ä Israel": 6778,
      "(obj": 6779,
      "={{": 6780,
      "Ä saved": 6781,
      "Ä syn": 6782,
      "Ä constant": 6783,
      "VENT": 6784,
      "Ä positive": 6785,
      "Ä conduct": 6786,
      "Ä skin": 6787,
      "Ä earlier": 6788,
      "Ä layout": 6789,
      "Ä IP": 6790,
      "OUR": 6791,
      "Ä tim": 6792,
      "stylesheet": 6793,
      "_cl": 6794,
      "Ä Card": 6795,
      "++){ÄŠ": 6796,
      "Ä temper": 6797,
      "Ä David": 6798,
      "Ä‰try": 6799,
      ".dart": 6800,
      "Ä wants": 6801,
      "Ä picture": 6802,
      "Ä videos": 6803,
      "Ä Comm": 6804,
      "isions": 6805,
      "_MAX": 6806,
      "Mapping": 6807,
      "-content": 6808,
      "Ä Ear": 6809,
      "-de": 6810,
      "Ä prem": 6811,
      "bruary": 6812,
      "Ä components": 6813,
      "Ä throughout": 6814,
      "Ä pull": 6815,
      "Ä pages": 6816,
      "ente": 6817,
      "respond": 6818,
      "Ä gas": 6819,
      "criptor": 6820,
      "Ä edge": 6821,
      "Ä bound": 6822,
      "ACT": 6823,
      "******": 6824,
      "Ä creating": 6825,
      "Ä CH": 6826,
      "Ä nullptr": 6827,
      "Br": 6828,
      "+'": 6829,
      ".co": 6830,
      ">::": 6831,
      "Ä learning": 6832,
      ".Length": 6833,
      "_SH": 6834,
      "Ä patients": 6835,
      "AIN": 6836,
      "Ä kids": 6837,
      "Ä comfort": 6838,
      "Ä shown": 6839,
      "ugins": 6840,
      "Ä Back": 6841,
      "ella": 6842,
      "_CL": 6843,
      "Ä lat": 6844,
      "Ä dispatch": 6845,
      "Ä classes": 6846,
      ".at": 6847,
      ".begin": 6848,
      "Ä successful": 6849,
      "ban": 6850,
      "Ä obtain": 6851,
      "Ä Sl": 6852,
      "Ä lack": 6853,
      "iterator": 6854,
      "Thread": 6855,
      "(size": 6856,
      "Ä none": 6857,
      ".has": 6858,
      "_X": 6859,
      "sort": 6860,
      "nap": 6861,
      "pet": 6862,
      "bin": 6863,
      "Ä Canada": 6864,
      "They": 6865,
      "Ä dans": 6866,
      "Ä Mat": 6867,
      "<td": 6868,
      "Ä hair": 6869,
      "Ä '',ÄŠ": 6870,
      "Ä cu": 6871,
      "Ä laws": 6872,
      "leted": 6873,
      "ped": 6874,
      "Ä pow": 6875,
      "Ä knew": 6876,
      "_COM": 6877,
      "_,": 6878,
      "Ä Mag": 6879,
      "idents": 6880,
      "(req": 6881,
      "Ä ),": 6882,
      "-center": 6883,
      "Ä wide": 6884,
      "Ä Author": 6885,
      "stants": 6886,
      "Ä jobs": 6887,
      "Ä math": 6888,
      "etimes": 6889,
      "Boolean": 6890,
      "Ä scope": 6891,
      "_is": 6892,
      "Ä meas": 6893,
      "Ä keys": 6894,
      "elay": 6895,
      "Ä exactly": 6896,
      "'=>'": 6897,
      "Ä Paul": 6898,
      "mas": 6899,
      "Ä‰print": 6900,
      "(len": 6901,
      "fd": 6902,
      "Ä );": 6903,
      ".Event": 6904,
      "qli": 6905,
      "irit": 6906,
      "ields": 6907,
      "oman": 6908,
      "Ä Top": 6909,
      "Ä vote": 6910,
      "Ä mask": 6911,
      "Ä theme": 6912,
      "-ÄŠ": 6913,
      "Ä props": 6914,
      "Ä fine": 6915,
      "Ä writer": 6916,
      "_offset": 6917,
      "car": 6918,
      "Ä altern": 6919,
      "Ä copyright": 6920,
      "Ä destroy": 6921,
      "pper": 6922,
      "Ä generate": 6923,
      "pped": 6924,
      "Ã¢Ä¢Ä»d": 6925,
      "Ä Ä Ä Ä Ä Ä ÄŠ": 6926,
      "make": 6927,
      "Ä Show": 6928,
      "Ä browser": 6929,
      "Ä favorite": 6930,
      "Ä career": 6931,
      "Ä happened": 6932,
      "(char": 6933,
      "Ä recommend": 6934,
      "Ä liter": 6935,
      ".filter": 6936,
      "grade": 6937,
      "Ä Ã‚Â£": 6938,
      "Phone": 6939,
      "oms": 6940,
      "Ä named": 6941,
      "-label": 6942,
      "ipo": 6943,
      "Ä Other": 6944,
      "Ä panel": 6945,
      "Ä rock": 6946,
      "Scale": 6947,
      "Ä‰assert": 6948,
      "ÃÂ´": 6949,
      "Ä trust": 6950,
      "front": 6951,
      "Ä demon": 6952,
      "Ar": 6953,
      "Net": 6954,
      "Ä economic": 6955,
      "footer": 6956,
      "Ä race": 6957,
      "(node": 6958,
      "Ä Option": 6959,
      "split": 6960,
      "Ä physical": 6961,
      "ifest": 6962,
      "Ä removed": 6963,
      ".http": 6964,
      ")),ÄŠ": 6965,
      "Ä looked": 6966,
      "';": 6967,
      "ding": 6968,
      "gest": 6969,
      "aturday": 6970,
      "/licenses": 6971,
      "Price": 6972,
      "Ä dro": 6973,
      "Ä towards": 6974,
      "Ä uns": 6975,
      "Ä CL": 6976,
      "Ä‰static": 6977,
      "Ä rows": 6978,
      "Ä define": 6979,
      ".replace": 6980,
      "Ä father": 6981,
      "Ä Design": 6982,
      "assign": 6983,
      "mut": 6984,
      "Device": 6985,
      "Did": 6986,
      "'))ÄŠ": 6987,
      "ometry": 6988,
      "ayload": 6989,
      "Ä histor": 6990,
      "Ä Param": 6991,
      "Ä Boolean": 6992,
      "Ä nature": 6993,
      "Ä js": 6994,
      "Ä nation": 6995,
      "ih": 6996,
      "Ä discover": 6997,
      "sem": 6998,
      "Handle": 6999,
      "Ä‰r": 7000,
      "Ä Techn": 7001,
      "Ä wall": 7002,
      "{$": 7003,
      "@property": 7004,
      "Ä \"../": 7005,
      "Ä exam": 7006,
      ".draw": 7007,
      "opping": 7008,
      "Ä nearly": 7009,
      "Ä cool": 7010,
      "Ä independ": 7011,
      "RES": 7012,
      "Ä handler": 7013,
      "Ä Monday": 7014,
      "Ä sun": 7015,
      "Styles": 7016,
      "ously": 7017,
      "Ä Ä‰": 7018,
      "vest": 7019,
      "Display": 7020,
      "(y": 7021,
      "atically": 7022,
      "Ä predict": 7023,
      "ying": 7024,
      "Ä sometimes": 7025,
      "\"]ÄŠ": 7026,
      "Ä drink": 7027,
      "Ä bul": 7028,
      "ifications": 7029,
      ".insert": 7030,
      ".reg": 7031,
      "Ä tests": 7032,
      "Alignment": 7033,
      "Ä alleg": 7034,
      "Ä attribute": 7035,
      "Ä Note": 7036,
      "Ä myself": 7037,
      "arts": 7038,
      "Now": 7039,
      "Ä interesting": 7040,
      "lients": 7041,
      "Ä population": 7042,
      "Ä California": 7043,
      "\"I": 7044,
      "Ã¥Â¹": 7045,
      "Ä greater": 7046,
      "uesday": 7047,
      "Ä thous": 7048,
      "Ä costs": 7049,
      "Ä launch": 7050,
      "\\Http": 7051,
      "ker": 7052,
      "band": 7053,
      "Ä Play": 7054,
      "Ä band": 7055,
      ".shape": 7056,
      "esome": 7057,
      "article": 7058,
      ".rf": 7059,
      "Ä wer": 7060,
      "ÃƒÂ¡s": 7061,
      "embers": 7062,
      "usr": 7063,
      "BA": 7064,
      "ican": 7065,
      "ett": 7066,
      "validate": 7067,
      "ulti": 7068,
      "Ä immediately": 7069,
      "zer": 7070,
      "Ä figure": 7071,
      "oes": 7072,
      "eller": 7073,
      "ircle": 7074,
      "Ä Sign": 7075,
      ".db": 7076,
      "Ä rank": 7077,
      "Bytes": 7078,
      "Ä projects": 7079,
      "_rec": 7080,
      "ULAR": 7081,
      "API": 7082,
      "Ä Line": 7083,
      "Port": 7084,
      "Ä poll": 7085,
      "Ä giving": 7086,
      "idence": 7087,
      "--ÄŠ": 7088,
      "Ä plot": 7089,
      "icial": 7090,
      "Ä warrant": 7091,
      "ITION": 7092,
      "Ä Double": 7093,
      "Ä billion": 7094,
      "gorithm": 7095,
      "Ä equipment": 7096,
      "DATE": 7097,
      "Ä @\"": 7098,
      "EE": 7099,
      "Ä ple": 7100,
      "iation": 7101,
      "Ä headers": 7102,
      "Ä proced": 7103,
      ".ComponentModel": 7104,
      "Ä Obama": 7105,
      "Ä pa": 7106,
      "Ä Best": 7107,
      "imately": 7108,
      ".getString": 7109,
      ".\\": 7110,
      "mploy": 7111,
      "Ä raw": 7112,
      "_block": 7113,
      "undred": 7114,
      "\"},ÄŠ": 7115,
      ".GroupLayout": 7116,
      "Ä brought": 7117,
      "NSString": 7118,
      "throw": 7119,
      "created": 7120,
      ".New": 7121,
      "_view": 7122,
      "CP": 7123,
      "eps": 7124,
      "Op": 7125,
      "Ä gratis": 7126,
      "Ä '\"": 7127,
      "Ä interview": 7128,
      "\"\"\"ÄŠ": 7129,
      "Ä partial": 7130,
      "Ä aria": 7131,
      "bing": 7132,
      "Author": 7133,
      "Book": 7134,
      "Ä Pat": 7135,
      "uman": 7136,
      "Users": 7137,
      "plus": 7138,
      "Ä Direct": 7139,
      "venue": 7140,
      "alpha": 7141,
      "UCCESS": 7142,
      "Ä Call": 7143,
      "Ä );ÄÄŠ": 7144,
      "imated": 7145,
      "Ä remain": 7146,
      "Ä anti": 7147,
      "Ä London": 7148,
      "Ä safety": 7149,
      "POSE": 7150,
      "oles": 7151,
      "controller": 7152,
      "Byte": 7153,
      "Ä Court": 7154,
      "Ä Phil": 7155,
      "Ä Associ": 7156,
      "ena": 7157,
      "Ã¥Ä²": 7158,
      "_STR": 7159,
      "coin": 7160,
      "reshold": 7161,
      "Ä batch": 7162,
      "_Click": 7163,
      "entication": 7164,
      ">';ÄŠ": 7165,
      "enty": 7166,
      "Ä beginning": 7167,
      "Ä zero": 7168,
      "Ä Convert": 7169,
      "Ä terr": 7170,
      "Ä paid": 7171,
      "Ä increased": 7172,
      "catch": 7173,
      "-size": 7174,
      "activity": 7175,
      "equals": 7176,
      "Ä queue": 7177,
      "Ä \"'": 7178,
      "Ä International": 7179,
      "Ä fÃƒÂ¼r": 7180,
      "ursday": 7181,
      "Ä scient": 7182,
      "allow": 7183,
      "axis": 7184,
      "Ä appropri": 7185,
      "edge": 7186,
      "Ä idx": 7187,
      "Success": 7188,
      "entifier": 7189,
      ":\\": 7190,
      "xis": 7191,
      "Ä maximum": 7192,
      "arks": 7193,
      "Ä birth": 7194,
      "(index": 7195,
      "Ä maybe": 7196,
      ".py": 7197,
      "files": 7198,
      "Ä limited": 7199,
      "_check": 7200,
      "look": 7201,
      "plies": 7202,
      "Ä movement": 7203,
      "'].": 7204,
      "Ä broad": 7205,
      "Ä BE": 7206,
      "Ä UnityEngine": 7207,
      ".cpp": 7208,
      "Ä Every": 7209,
      "Admin": 7210,
      "Ä fans": 7211,
      "pared": 7212,
      "ÄŠÄ Ä Ä Ä ÄŠ": 7213,
      "Ä foreign": 7214,
      "Ä pan": 7215,
      "Ä tour": 7216,
      "Ä Order": 7217,
      "Ä moving": 7218,
      "Ä auf": 7219,
      "Call": 7220,
      "cb": 7221,
      "Ã…Å": 7222,
      "ventory": 7223,
      "Ä Sql": 7224,
      "Ä fully": 7225,
      "ClickListener": 7226,
      "WORD": 7227,
      "Ä announced": 7228,
      ")ÄÄŠÄÄŠ": 7229,
      "Ä agreed": 7230,
      "rie": 7231,
      "Ä earn": 7232,
      "_link": 7233,
      ".array": 7234,
      "(text": 7235,
      "Ä materials": 7236,
      ",p": 7237,
      "ffff": 7238,
      "vg": 7239,
      "Ä Ã‚Â©": 7240,
      "Ä unless": 7241,
      "ajax": 7242,
      "LOG": 7243,
      "Ä sexual": 7244,
      "Ä \\\"": 7245,
      "-time": 7246,
      "Ä coach": 7247,
      "Ä supported": 7248,
      "Ä photos": 7249,
      "iform": 7250,
      ".Create": 7251,
      ")]": 7252,
      "rier": 7253,
      "Ä dialog": 7254,
      "aver": 7255,
      "ige": 7256,
      ")+": 7257,
      "_idx": 7258,
      ":[": 7259,
      "_min": 7260,
      "Ä Cong": 7261,
      "Ä pressure": 7262,
      "Ä teams": 7263,
      "Sign": 7264,
      "begin": 7265,
      "rian": 7266,
      "NESS": 7267,
      "LS": 7268,
      "Ä improve": 7269,
      "Ä Sunday": 7270,
      "Ä definition": 7271,
      "iger": 7272,
      "rollers": 7273,
      "Ä thinking": 7274,
      "Template": 7275,
      "-F": 7276,
      "Ä emerg": 7277,
      "plates": 7278,
      "Ä USA": 7279,
      ".setState": 7280,
      "Ä Also": 7281,
      "rev": 7282,
      "Ä enable": 7283,
      "Ä CO": 7284,
      "PECT": 7285,
      "Ä concept": 7286,
      ")-": 7287,
      "Ä Ã¢Ä¢Â¢": 7288,
      "Ä sets": 7289,
      "Ä meaning": 7290,
      "emon": 7291,
      "Ä Cons": 7292,
      "cmp": 7293,
      "eder": 7294,
      "anned": 7295,
      "icensed": 7296,
      "Ä Super": 7297,
      "Ä daily": 7298,
      "Ä multi": 7299,
      "_u": 7300,
      "Ä challeng": 7301,
      "_mode": 7302,
      "Ä Promise": 7303,
      "Ä strict": 7304,
      "jo": 7305,
      "inton": 7306,
      "(list": 7307,
      "Only": 7308,
      ">{": 7309,
      "Ä vehicle": 7310,
      "Ã­Ä·": 7311,
      "Ä Player": 7312,
      "Ä Del": 7313,
      "Ä pool": 7314,
      ".url": 7315,
      "nesday": 7316,
      "();ÄÄŠÄÄŠ": 7317,
      "Ä \");ÄŠ": 7318,
      "Local": 7319,
      ".\");ÄŠ": 7320,
      "Ä organization": 7321,
      "render": 7322,
      "Ä Application": 7323,
      "Ä summer": 7324,
      "expected": 7325,
      "NA": 7326,
      "Ä rap": 7327,
      "_obj": 7328,
      "Ä surface": 7329,
      "Ä PUR": 7330,
      "Ä },ÄŠÄŠ": 7331,
      "Ä variables": 7332,
      "(message": 7333,
      "Ä opin": 7334,
      ".back": 7335,
      "ÃÂ°ÃÂ½": 7336,
      "Ä workers": 7337,
      "vm": 7338,
      "Co": 7339,
      "ughter": 7340,
      "Ä master": 7341,
      "Ä \"\",": 7342,
      "Ä stories": 7343,
      ".User": 7344,
      "Ä celebr": 7345,
      "inese": 7346,
      "BS": 7347,
      "Ä Command": 7348,
      "ashboard": 7349,
      "Ä og": 7350,
      "kg": 7351,
      ".image": 7352,
      ".style": 7353,
      "Ä steps": 7354,
      "Ä Ben": 7355,
      "(args": 7356,
      "Ä Person": 7357,
      ",y": 7358,
      "Ä officials": 7359,
      "|ÄŠ": 7360,
      "Ä skills": 7361,
      "vc": 7362,
      "Ä builder": 7363,
      "Ä gar": 7364,
      "Account": 7365,
      "Ä Auth": 7366,
      "Ã§Ä¶": 7367,
      "'])ÄŠ": 7368,
      "Ä AT": 7369,
      "nn": 7370,
      ".Int": 7371,
      "SSERT": 7372,
      "Ä effective": 7373,
      "LETE": 7374,
      "Ä tools": 7375,
      "ARD": 7376,
      "Ä digital": 7377,
      "Double": 7378,
      "Ä Find": 7379,
      "RC": 7380,
      "Ä inline": 7381,
      "/r": 7382,
      "ARAM": 7383,
      "ASK": 7384,
      "Ä intent": 7385,
      "aight": 7386,
      "_addr": 7387,
      "Ä requests": 7388,
      ".first": 7389,
      "Ä debug": 7390,
      "Ä spent": 7391,
      "()));ÄŠ": 7392,
      "Ã…Ä½": 7393,
      "Ä princip": 7394,
      "Logger": 7395,
      "cludes": 7396,
      ".use": 7397,
      "Ä surv": 7398,
      "media": 7399,
      "Ä February": 7400,
      "Ä Mac": 7401,
      "Ä missing": 7402,
      "Ä wife": 7403,
      "Ä talking": 7404,
      "Ä Make": 7405,
      "Ä cart": 7406,
      "Ä located": 7407,
      "Enc": 7408,
      "-a": 7409,
      "chron": 7410,
      "Ä cards": 7411,
      "Ä guy": 7412,
      "Ä pers": 7413,
      "Ä Yes": 7414,
      "atever": 7415,
      "Ä Ang": 7416,
      "olar": 7417,
      "Ä Even": 7418,
      "Ä accur": 7419,
      "Ä Power": 7420,
      "Ä Gold": 7421,
      "clear": 7422,
      "Process": 7423,
      "Ä records": 7424,
      "Ä killed": 7425,
      ".clear": 7426,
      "Ä WARRANTIES": 7427,
      "Ä purpose": 7428,
      "panel": 7429,
      "JECT": 7430,
      "ÃƒÅƒa": 7431,
      "Ä exerc": 7432,
      "WS": 7433,
      "/L": 7434,
      ".exports": 7435,
      "Ä ___": 7436,
      "Ä sin": 7437,
      "Servlet": 7438,
      "Ä dÃƒÂ©": 7439,
      ".delete": 7440,
      "roke": 7441,
      "Sl": 7442,
      "ugh": 7443,
      "ears": 7444,
      "Ä pointer": 7445,
      "Ä hop": 7446,
      "allery": 7447,
      "Ä obs": 7448,
      "covery": 7449,
      "Ä‰char": 7450,
      "Ä‰Ä‰Ä‰Ä‰Ä‰Ä‰Ä‰Ä‰Ä‰Ä‰": 7451,
      "Ä‰def": 7452,
      "ocity": 7453,
      "itchen": 7454,
      "ulations": 7455,
      "Ä FIT": 7456,
      "Ä ).": 7457,
      "straints": 7458,
      "vention": 7459,
      "Ä requires": 7460,
      "Ä Oper": 7461,
      "ME": 7462,
      "OUNT": 7463,
      "allet": 7464,
      "Ä norm": 7465,
      "IRE": 7466,
      "exas": 7467,
      "Ä programs": 7468,
      "Ä weak": 7469,
      "'.$": 7470,
      "uing": 7471,
      "Ä‰Ä Ä Ä Ä Ä Ä Ä ": 7472,
      "Ä mil": 7473,
      "Ä firm": 7474,
      "initely": 7475,
      "_VALUE": 7476,
      "apse": 7477,
      "atisf": 7478,
      "Ä demand": 7479,
      "_mod": 7480,
      "Ä described": 7481,
      "Ä places": 7482,
      "VID": 7483,
      "Ä alone": 7484,
      "Ä export": 7485,
      "Ä vec": 7486,
      "Ä Max": 7487,
      "Ä activities": 7488,
      "ictures": 7489,
      "gener": 7490,
      "Ä ma": 7491,
      "Ä¤Â¬": 7492,
      "Ä expression": 7493,
      "Callback": 7494,
      "_content": 7495,
      "Ä Most": 7496,
      "Ä testing": 7497,
      "EC": 7498,
      "CHANT": 7499,
      "Ä adjust": 7500,
      ".Threading": 7501,
      "(ctx": 7502,
      "Ä agree": 7503,
      "ighest": 7504,
      "Ä ui": 7505,
      "Ä Law": 7506,
      ".Y": 7507,
      "><?": 7508,
      "Ä pod": 7509,
      "-lg": 7510,
      "Ã¢Ä¢Ä¿ÄŠÄŠ": 7511,
      "Ä describe": 7512,
      "Ä European": 7513,
      "-sh": 7514,
      "Ä PURPOSE": 7515,
      "ORY": 7516,
      "Ä convers": 7517,
      "Ä Illuminate": 7518,
      "Ä Av": 7519,
      "(ch": 7520,
      "?\"": 7521,
      "chen": 7522,
      "ima": 7523,
      "Document": 7524,
      "Ä operations": 7525,
      "win": 7526,
      "Ä‰function": 7527,
      ".Image": 7528,
      "Ä scen": 7529,
      "/h": 7530,
      "Ä SC": 7531,
      "Ä explo": 7532,
      ":%": 7533,
      "/**ÄÄŠ": 7534,
      "NAME": 7535,
      "Ã¦Äª": 7536,
      "(var": 7537,
      "Ä director": 7538,
      "ONG": 7539,
      "Ä yield": 7540,
      "Ä feet": 7541,
      "Ä Search": 7542,
      "Ä Il": 7543,
      "Ä restaur": 7544,
      "duc": 7545,
      "Ä integer": 7546,
      "Ä '';ÄŠ": 7547,
      "Ä highly": 7548,
      "checked": 7549,
      "Ä PARTIC": 7550,
      "ERCHANT": 7551,
      "Ã¯Â¼Ä«": 7552,
      "Ä optim": 7553,
      "Queue": 7554,
      "Ä LI": 7555,
      "itation": 7556,
      "Ä transport": 7557,
      "ission": 7558,
      "fill": 7559,
      "usion": 7560,
      "Ä Ä Ä Ä Ä Ä Ä Ä Ä Ä Ä Ä Ä Ä Ä Ä Ä Ä Ä Ä Ä Ä Ä Ä Ä Ä Ä Ä Ä Ä ": 7561,
      "Ä‰bool": 7562,
      "-th": 7563,
      "upt": 7564,
      "Ä essential": 7565,
      "anted": 7566,
      "Ä benefits": 7567,
      "Ä‰S": 7568,
      "';ÄÄŠ": 7569,
      "iki": 7570,
      "Ä girls": 7571,
      "iced": 7572,
      "buffer": 7573,
      "]+": 7574,
      "Ä socket": 7575,
      "Ä prices": 7576,
      "Ä Fre": 7577,
      "Ä sat": 7578,
      "Ä wood": 7579,
      "MenuItem": 7580,
      "ARG": 7581,
      "Ä Admin": 7582,
      "OWN": 7583,
      "dk": 7584,
      "Ä reset": 7585,
      "Ä forms": 7586,
      "Ä ÃÂ¸": 7587,
      "Ã¦Ä¸": 7588,
      "Ä Tuesday": 7589,
      "Ä Initialized": 7590,
      "_train": 7591,
      "orary": 7592,
      "ategor": 7593,
      "Ä dt": 7594,
      "Total": 7595,
      "construct": 7596,
      "ilies": 7597,
      "Ä guys": 7598,
      "ÃÂµÃ‘Ä¢": 7599,
      "Ä instruction": 7600,
      "yled": 7601,
      "Ä internet": 7602,
      "etadata": 7603,
      "ady": 7604,
      "faces": 7605,
      "jection": 7606,
      "Ä Jack": 7607,
      "Ä rect": 7608,
      "[-": 7609,
      "Ä Leg": 7610,
      "Ä devices": 7611,
      "OC": 7612,
      "Ä *ÄÄŠ": 7613,
      "oration": 7614,
      "ertain": 7615,
      "Ä guard": 7616,
      "ostream": 7617,
      "Ä enum": 7618,
      ".layout": 7619,
      "Ä \";ÄŠ": 7620,
      "voke": 7621,
      "Ä Ok": 7622,
      "Home": 7623,
      "(tr": 7624,
      "ETH": 7625,
      "Ä delay": 7626,
      "Ä purchase": 7627,
      "dc": 7628,
      "Ä aren": 7629,
      "_once": 7630,
      "Ä‰Ä‰Ä‰Ä‰ÄŠ": 7631,
      "ror": 7632,
      "draw": 7633,
      ".run": 7634,
      "(model": 7635,
      "Timeout": 7636,
      "lik": 7637,
      "Ä Arg": 7638,
      ".en": 7639,
      "Ä fish": 7640,
      "cpy": 7641,
      "_fe": 7642,
      "ERCHANTABILITY": 7643,
      "(X": 7644,
      "_output": 7645,
      "??": 7646,
      "Ä jo": 7647,
      "andard": 7648,
      "Ä doll": 7649,
      "errors": 7650,
      "_base": 7651,
      "Ä PARTICULAR": 7652,
      "Ä leader": 7653,
      "Ä compar": 7654,
      "Ä doub": 7655,
      "Ä Vis": 7656,
      "StackTrace": 7657,
      "-C": 7658,
      "Ä Stud": 7659,
      "stitute": 7660,
      "More": 7661,
      "Ä Description": 7662,
      "WARE": 7663,
      "ads": 7664,
      "Ä ÃÂº": 7665,
      "bind": 7666,
      "=self": 7667,
      "employ": 7668,
      "[n": 7669,
      ".all": 7670,
      "-B": 7671,
      "&&": 7672,
      "alm": 7673,
      "Ä culture": 7674,
      "house": 7675,
      "Ä suffer": 7676,
      "Ä '%": 7677,
      "Ä straight": 7678,
      "Ä Star": 7679,
      "udo": 7680,
      "Ä ded": 7681,
      "Ä COM": 7682,
      "Ä confirm": 7683,
      "Ä Good": 7684,
      ".sc": 7685,
      "________________": 7686,
      "DR": 7687,
      "Configuration": 7688,
      "DateTime": 7689,
      "Ä advert": 7690,
      "Ä couldn": 7691,
      "async": 7692,
      "stack": 7693,
      "')ÄÄŠ": 7694,
      "Kit": 7695,
      "Ä hous": 7696,
      "Ä mechan": 7697,
      "rate": 7698,
      "Ä audio": 7699,
      "Ä‰cout": 7700,
      "cores": 7701,
      "Ä spot": 7702,
      "Ä increasing": 7703,
      "Ä ##": 7704,
      ")))": 7705,
      "points": 7706,
      "Ä compared": 7707,
      "lig": 7708,
      "Ä behavior": 7709,
      "Ä BY": 7710,
      "Ä Att": 7711,
      "craft": 7712,
      "headers": 7713,
      "ete": 7714,
      "endregion": 7715,
      "Ä detail": 7716,
      "ULE": 7717,
      "Ä Common": 7718,
      "Ä‰protected": 7719,
      "ston": 7720,
      "Ä FITNESS": 7721,
      "Ä fresh": 7722,
      "\">ÄŠÄŠ": 7723,
      ".example": 7724,
      "berg": 7725,
      "Ä moved": 7726,
      "Ä‰e": 7727,
      "Ä Saturday": 7728,
      "Ä payload": 7729,
      "Ã„Ä©": 7730,
      "):ÄŠÄŠ": 7731,
      "Ä bey": 7732,
      "urer": 7733,
      "<script": 7734,
      "Ä symbol": 7735,
      "Ä assum": 7736,
      "Ä pul": 7737,
      "Effect": 7738,
      "Ä hundred": 7739,
      "Tool": 7740,
      "aked": 7741,
      "connection": 7742,
      "Ä voice": 7743,
      "Ä pd": 7744,
      "Ä transaction": 7745,
      "Ä links": 7746,
      "Err": 7747,
      "Ä Indian": 7748,
      "TC": 7749,
      "atalog": 7750,
      "ni": 7751,
      "sign": 7752,
      "<<\"": 7753,
      "ji": 7754,
      "ya": 7755,
      "Ä demonstr": 7756,
      "ulated": 7757,
      ".St": 7758,
      "Ä instit": 7759,
      "Ä boost": 7760,
      "Ä cells": 7761,
      "olic": 7762,
      ".Pro": 7763,
      ":</": 7764,
      "EventListener": 7765,
      "ifying": 7766,
      "Ä Di": 7767,
      "orrow": 7768,
      ".execute": 7769,
      "Ä college": 7770,
      "Your": 7771,
      "Ä largest": 7772,
      ".dis": 7773,
      "Ä qui": 7774,
      "Ä individuals": 7775,
      "_buffer": 7776,
      "Ä ng": 7777,
      "SA": 7778,
      "Ä Control": 7779,
      "Ä sing": 7780,
      "Ä suit": 7781,
      "Ä Ä Ä Ä Ä‰": 7782,
      "SG": 7783,
      "Ä jump": 7784,
      "Ä smart": 7785,
      "oma": 7786,
      "Ä Exp": 7787,
      "Ä '-": 7788,
      "Ä assist": 7789,
      "Ä successfully": 7790,
      "sys": 7791,
      "Ä Cre": 7792,
      "_ref": 7793,
      "Ä Thursday": 7794,
      "Ä bur": 7795,
      "Ä ÃÂ´": 7796,
      "Ä beyond": 7797,
      "Ä nodes": 7798,
      "Details": 7799,
      "inct": 7800,
      "Ä James": 7801,
      "Ä affect": 7802,
      "exception": 7803,
      "Ä typeof": 7804,
      "(ÄÄŠ": 7805,
      "-se": 7806,
      "Ä fetch": 7807,
      "`,": 7808,
      "Ä crusher": 7809,
      "}.": 7810,
      "Ä BO": 7811,
      "Show": 7812,
      "Ä rates": 7813,
      "Ä bon": 7814,
      "-icon": 7815,
      "Ä Media": 7816,
      "RESS": 7817,
      "Ä Valid": 7818,
      "ÃÂ¾ÃÂ»": 7819,
      "Ä fuck": 7820,
      "acks": 7821,
      "Ä studies": 7822,
      "Me": 7823,
      "Ä owners": 7824,
      "}else": 7825,
      "Ä growing": 7826,
      "Variable": 7827,
      "Ä Bel": 7828,
      ".random": 7829,
      "vement": 7830,
      "onym": 7831,
      "(F": 7832,
      "Ä FALSE": 7833,
      "Ä torch": 7834,
      "(row": 7835,
      "igo": 7836,
      "structure": 7837,
      "Ä certainly": 7838,
      "Dep": 7839,
      "Ä Green": 7840,
      "question": 7841,
      "Ä adding": 7842,
      "Ä Develop": 7843,
      "_def": 7844,
      "Ä mach": 7845,
      "=%": 7846,
      "Ä‰Ä‰Ä ": 7847,
      "conds": 7848,
      "Project": 7849,
      "Ä reject": 7850,
      "Ä ÃŽ": 7851,
      "Ä poor": 7852,
      "Ä aware": 7853,
      "Ä Build": 7854,
      "Ä British": 7855,
      "Ä NE": 7856,
      "Ä numer": 7857,
      "rees": 7858,
      "claim": 7859,
      "Ä mock": 7860,
      "Ä om": 7861,
      "Ä scre": 7862,
      "OLD": 7863,
      ".pl": 7864,
      "eler": 7865,
      "Ä correspond": 7866,
      "_HE": 7867,
      "Ä binary": 7868,
      "_order": 7869,
      "Ä SQL": 7870,
      "Ä advant": 7871,
      "Ä prev": 7872,
      ".[": 7873,
      ".assertEqual": 7874,
      "plier": 7875,
      "arp": 7876,
      "Ä closed": 7877,
      "Ä encour": 7878,
      "Ä QString": 7879,
      "aud": 7880,
      "Ä developed": 7881,
      "Ä permission": 7882,
      ".debug": 7883,
      "operator": 7884,
      "Ä 'ÄŠ": 7885,
      "Ä sym": 7886,
      "atively": 7887,
      "ÃƒÂ©e": 7888,
      "-color": 7889,
      "Ä GET": 7890,
      "ky": 7891,
      "Ä although": 7892,
      "_request": 7893,
      "_element": 7894,
      "................": 7895,
      "_DATA": 7896,
      "Ä amazing": 7897,
      "Ä sb": 7898,
      "Ä Default": 7899,
      "Events": 7900,
      "Ä failure": 7901,
      "acle": 7902,
      "Properties": 7903,
      "Ä dream": 7904,
      "Ä distr": 7905,
      "Ä au": 7906,
      "Ä generated": 7907,
      "Ã¦Ä·": 7908,
      "Ä Team": 7909,
      "USE": 7910,
      "Ä income": 7911,
      "Ä eye": 7912,
      "_not": 7913,
      "\"],": 7914,
      "_form": 7915,
      "Support": 7916,
      "orders": 7917,
      ".Print": 7918,
      "ville": 7919,
      "Ä Wednesday": 7920,
      "olver": 7921,
      "Ä oppos": 7922,
      "isation": 7923,
      "ola": 7924,
      "Close": 7925,
      "<p": 7926,
      "_width": 7927,
      "Invalid": 7928,
      "xb": 7929,
      "Ä strugg": 7930,
      "_action": 7931,
      "Ä txt": 7932,
      "Ä Path": 7933,
      "alar": 7934,
      "Ä MERCHANTABILITY": 7935,
      "service": 7936,
      "Ä Michael": 7937,
      "ableView": 7938,
      "Debug": 7939,
      "okes": 7940,
      "She": 7941,
      "Ä guess": 7942,
      "Ä Java": 7943,
      "_PATH": 7944,
      "Ä particularly": 7945,
      "Ä II": 7946,
      "Ä domain": 7947,
      "Ã¥Â¹Â´": 7948,
      "Ä reduce": 7949,
      "-left": 7950,
      "real": 7951,
      "Ä appears": 7952,
      "Ä como": 7953,
      "Ä Unit": 7954,
      "Ä Govern": 7955,
      "ali": 7956,
      "allel": 7957,
      "Ä Jew": 7958,
      "_I": 7959,
      "Ä cos": 7960,
      ".color": 7961,
      "Ä Global": 7962,
      "Ä tele": 7963,
      "ben": 7964,
      "_trans": 7965,
      "Ä reasons": 7966,
      "Ä emb": 7967,
      "ensity": 7968,
      "lines": 7969,
      "omin": 7970,
      "Screen": 7971,
      "ÃÂ°Ã‘Ä¤": 7972,
      "pects": 7973,
      "clip": 7974,
      "foo": 7975,
      "rent": 7976,
      "Ä af": 7977,
      "Ä danger": 7978,
      "iling": 7979,
      "Names": 7980,
      "Our": 7981,
      "Ä distribution": 7982,
      "While": 7983,
      "SL": 7984,
      "Write": 7985,
      "Ä goto": 7986,
      "Ä colors": 7987,
      "Ä powerful": 7988,
      "kin": 7989,
      "Ä depth": 7990,
      "ercial": 7991,
      "Ä Congress": 7992,
      "Ä Market": 7993,
      "Db": 7994,
      "under": 7995,
      "Ä Last": 7996,
      "ÃƒÅ": 7997,
      "greg": 7998,
      "Ä posts": 7999,
      "_URL": 8000,
      "otos": 8001,
      "Don": 8002,
      "Ä micro": 8003,
      "Ä arrest": 8004,
      "ÃÂ¿": 8005,
      "Ä (@": 8006,
      "Ä Hot": 8007,
      "Ä Index": 8008,
      ";&": 8009,
      "#!": 8010,
      "Ä Nor": 8011,
      "Ä Cap": 8012,
      "-(": 8013,
      "Ä interested": 8014,
      "pear": 8015,
      "Ä rent": 8016,
      "Ä album": 8017,
      "olicy": 8018,
      ".lang": 8019,
      ".trans": 8020,
      ".format": 8021,
      "Ä {ÄÄŠÄÄŠ": 8022,
      "phere": 8023,
      "Ä axis": 8024,
      "Ä Business": 8025,
      "ersistence": 8026,
      "urr": 8027,
      "Ä minimum": 8028,
      "endor": 8029,
      "Ä SD": 8030,
      "Ä Internet": 8031,
      "Ã¥Â¤": 8032,
      "Exp": 8033,
      "iverse": 8034,
      "MM": 8035,
      "Ä obvious": 8036,
      "Ä basis": 8037,
      "Ä science": 8038,
      "Ä budget": 8039,
      "izations": 8040,
      "PA": 8041,
      "Ä flags": 8042,
      "pret": 8043,
      "LOCK": 8044,
      "Ä variety": 8045,
      "Ä truth": 8046,
      "dt": 8047,
      "Ä gone": 8048,
      "Ä battle": 8049,
      "<std": 8050,
      "Ä Sil": 8051,
      "rf": 8052,
      "uda": 8053,
      "Ä erot": 8054,
      "Ä Cam": 8055,
      "Ä station": 8056,
      "Ä '</": 8057,
      "cheme": 8058,
      "Ä Sun": 8059,
      "Ä finished": 8060,
      "Ä shop": 8061,
      "Ä Kore": 8062,
      "Ä eight": 8063,
      "_REG": 8064,
      "ND": 8065,
      ">,": 8066,
      "\"><?": 8067,
      "(num": 8068,
      "Ä‰inline": 8069,
      "Transaction": 8070,
      ".On": 8071,
      "Ä mail": 8072,
      "rey": 8073,
      "results": 8074,
      "Ä nav": 8075,
      "IMIT": 8076,
      "_ids": 8077,
      "Make": 8078,
      "Ã¥Ä¬": 8079,
      "Modal": 8080,
      "Ä LOG": 8081,
      "Ä Sur": 8082,
      "Ä instanceof": 8083,
      "Ä overall": 8084,
      "Ä Information": 8085,
      "Ä construction": 8086,
      "_FILE": 8087,
      "but": 8088,
      "Ä medic": 8089,
      "Ä duration": 8090,
      "itness": 8091,
      "agent": 8092,
      "AV": 8093,
      "Ä seven": 8094,
      "olf": 8095,
      "Ä }}ÄŠ": 8096,
      "\"],ÄŠ": 8097,
      "Ä calling": 8098,
      "Ä ans": 8099,
      "throws": 8100,
      "orizontal": 8101,
      "Ä useState": 8102,
      ".fl": 8103,
      "Ä Status": 8104,
      "Ä Online": 8105,
      "RR": 8106,
      "Ä Rich": 8107,
      "Ä Hill": 8108,
      "Ä brain": 8109,
      "Ä followed": 8110,
      "emic": 8111,
      "Ä slight": 8112,
      "Ä insurance": 8113,
      ".Array": 8114,
      "Ä abstract": 8115,
      "Ä Sum": 8116,
      "redirect": 8117,
      "owner": 8118,
      "(msg": 8119,
      "Ä Clinton": 8120,
      "Non": 8121,
      "Ä‰ex": 8122,
      "Ä volume": 8123,
      "Ä EventArgs": 8124,
      "-L": 8125,
      "Ä Dim": 8126,
      "Ä Mart": 8127,
      "Ä cursor": 8128,
      "Ä implementation": 8129,
      "urred": 8130,
      "Ä larger": 8131,
      ");ÄŠÄŠÄŠ": 8132,
      "'+": 8133,
      ".transform": 8134,
      "Ä upload": 8135,
      "Ä Ä Ä Ä Ä Ä Ä Ä Ä Ä Ä Ä Ä Ä Ä Ä Ä Ä Ä Ä Ä Ä Ä Ä Ä Ä Ä Ä Ä Ä Ä Ä Ä Ä Ä Ä Ä Ä Ä Ä Ä Ä Ä Ä Ä Ä Ä Ä Ä Ä Ä Ä Ä Ä Ä ": 8136,
      "Draw": 8137,
      "nel": 8138,
      "Ä‰float": 8139,
      "qrt": 8140,
      "Ä Network": 8141,
      "Ä tit": 8142,
      "Axis": 8143,
      ".android": 8144,
      "Ä completed": 8145,
      "Ä mur": 8146,
      "Ä columns": 8147,
      "xc": 8148,
      "Ä supply": 8149,
      "iminal": 8150,
      "Ä spr": 8151,
      "================================================================": 8152,
      "Ä units": 8153,
      "(u": 8154,
      "mi": 8155,
      "replace": 8156,
      "[key": 8157,
      "Ã Â¹": 8158,
      "antic": 8159,
      "Ä payment": 8160,
      ",B": 8161,
      "Ä Apple": 8162,
      "gin": 8163,
      "Required": 8164,
      "#+": 8165,
      "lands": 8166,
      "Ä squ": 8167,
      "Ä factor": 8168,
      "dec": 8169,
      "Ä strength": 8170,
      "Ä boy": 8171,
      "Ä balance": 8172,
      "Ä sources": 8173,
      "screen": 8174,
      "-top": 8175,
      "Ä Amazon": 8176,
      "Ä hidden": 8177,
      "ÃÂµÃ‘Ä¤": 8178,
      "_client": 8179,
      "Ä eat": 8180,
      ".display": 8181,
      "Ä Ã‚Â»": 8182,
      "Ä trigger": 8183,
      "anager": 8184,
      "Ä tro": 8185,
      "Ä claims": 8186,
      "ford": 8187,
      "Ä Company": 8188,
      "Ä gift": 8189,
      ",:": 8190,
      "_app": 8191,
      "handle": 8192,
      "Ä produce": 8193,
      "/lib": 8194,
      "Ä -*": 8195,
      "Ä‰set": 8196,
      "'];": 8197,
      "arc": 8198,
      "ander": 8199,
      "Ä Engine": 8200,
      "Ä attributes": 8201,
      "task": 8202,
      "<=": 8203,
      "(N": 8204,
      "Ä warm": 8205,
      "which": 8206,
      "Ä Fore": 8207,
      "agnost": 8208,
      "mys": 8209,
      "Ä tal": 8210,
      "Ä Sal": 8211,
      "gi": 8212,
      "Ä Print": 8213,
      "Ä TRUE": 8214,
      "Ä ÃÂ¾": 8215,
      ".UI": 8216,
      "Ä flash": 8217,
      "roperty": 8218,
      ".location": 8219,
      "Ä Mill": 8220,
      "bi": 8221,
      "contr": 8222,
      ".request": 8223,
      "Ä Sam": 8224,
      "Ä negative": 8225,
      "kit": 8226,
      "Ä sett": 8227,
      ".printStackTrace": 8228,
      "abe": 8229,
      "Ä‰i": 8230,
      "Ä burn": 8231,
      "Ä society": 8232,
      "Cache": 8233,
      "Ä Security": 8234,
      ".models": 8235,
      "Ä WARRANTY": 8236,
      "_up": 8237,
      "ceive": 8238,
      "Ä clients": 8239,
      ".Tr": 8240,
      "Ä providing": 8241,
      "Ä rout": 8242,
      "material": 8243,
      "Ä ||ÄŠ": 8244,
      "Ä Ser": 8245,
      "Ä Office": 8246,
      "FTWARE": 8247,
      "Ä '$": 8248,
      "Ä foc": 8249,
      "Ä excell": 8250,
      "Ä cat": 8251,
      "normal": 8252,
      "Ä determine": 8253,
      "Ä‰uint": 8254,
      "Pane": 8255,
      "Ä employees": 8256,
      "Ä Texas": 8257,
      "Ä traff": 8258,
      "Ä Report": 8259,
      "anta": 8260,
      "Ä Box": 8261,
      "Ä django": 8262,
      "Ä partner": 8263,
      "EB": 8264,
      "LINE": 8265,
      "Ä feeling": 8266,
      "Ä civil": 8267,
      "(float": 8268,
      "Sql": 8269,
      "Ä wouldn": 8270,
      ".init": 8271,
      ".left": 8272,
      "-v": 8273,
      "_level": 8274,
      "'}": 8275,
      "AF": 8276,
      "Ä loading": 8277,
      "Ä Only": 8278,
      "Ä cookies": 8279,
      "Ä Gl": 8280,
      "CO": 8281,
      "Ä strategy": 8282,
      "('./": 8283,
      "Ä ship": 8284,
      "poses": 8285,
      "Ä signal": 8286,
      "Ä alpha": 8287,
      ".pop": 8288,
      "Radius": 8289,
      "Ä replace": 8290,
      "_DIR": 8291,
      "counter": 8292,
      "bservable": 8293,
      "ela": 8294,
      "Weight": 8295,
      "hash": 8296,
      "bose": 8297,
      "fx": 8298,
      "Ä Email": 8299,
      "Ä refer": 8300,
      "localhost": 8301,
      "_RO": 8302,
      "iques": 8303,
      "Step": 8304,
      "Ä ahead": 8305,
      "(View": 8306,
      "Ä Services": 8307,
      "Ä Json": 8308,
      "essor": 8309,
      "Ä pun": 8310,
      "Ä appropriate": 8311,
      "akers": 8312,
      "osen": 8313,
      "posing": 8314,
      "Ä agent": 8315,
      "fc": 8316,
      "Ä transfer": 8317,
      "Ä invalid": 8318,
      "Ä Research": 8319,
      "Vertex": 8320,
      "Ä gay": 8321,
      "Ä journal": 8322,
      "[x": 8323,
      "Ä \"\",ÄŠ": 8324,
      "Ä Well": 8325,
      ".Tasks": 8326,
      "Spec": 8327,
      "Ä ol": 8328,
      "Ä spend": 8329,
      "Ä Australia": 8330,
      "Match": 8331,
      ".junit": 8332,
      "Ä Ä Ä Ä Ä Ä Ä Ä Ä Ä Ä Ä Ä Ä Ä Ä Ä Ä Ä Ä Ä Ä Ä Ä Ä Ä Ä Ä Ä Ä Ä Ä Ä Ä Ä Ä Ä ": 8333,
      "Ä MAX": 8334,
      "izable": 8335,
      "clusive": 8336,
      "_valid": 8337,
      "Ä quarter": 8338,
      "yan": 8339,
      "Ä Edit": 8340,
      "arden": 8341,
      "=new": 8342,
      "Ä frag": 8343,
      "Bit": 8344,
      "zi": 8345,
      "aine": 8346,
      "udd": 8347,
      ".Object": 8348,
      "debug": 8349,
      "Ä cash": 8350,
      "_IM": 8351,
      "Ä een": 8352,
      "Ä commercial": 8353,
      "Ä Video": 8354,
      "loader": 8355,
      "Ä fixed": 8356,
      "Ä applications": 8357,
      "Ä _,": 8358,
      "Ä Russia": 8359,
      "itect": 8360,
      "_(": 8361,
      "Ä Block": 8362,
      "Ä san": 8363,
      "Ä Tom": 8364,
      "Ä perhaps": 8365,
      "Ä sig": 8366,
      "levant": 8367,
      "Ä corpor": 8368,
      "ataset": 8369,
      "ronic": 8370,
      "xe": 8371,
      "Ä eth": 8372,
      "Some": 8373,
      "pop": 8374,
      "_OK": 8375,
      "Ä tend": 8376,
      ".Res": 8377,
      "_and": 8378,
      "Ä reviews": 8379,
      "Ä wild": 8380,
      "Ä degree": 8381,
      ".O": 8382,
      ".objects": 8383,
      "_args": 8384,
      "nil": 8385,
      "Ä disabled": 8386,
      "Parent": 8387,
      "Ä notes": 8388,
      "Ä \"\"ÄŠ": 8389,
      "(state": 8390,
      "istrict": 8391,
      "Ä logging": 8392,
      ".IO": 8393,
      "Ä Mal": 8394,
      "DM": 8395,
      "Ä xml": 8396,
      "Ä Robert": 8397,
      "elen": 8398,
      "layout": 8399,
      "fol": 8400,
      "']))": 8401,
      ",b": 8402,
      "Ä Jer": 8403,
      "filename": 8404,
      "Ä fan": 8405,
      "Ä Custom": 8406,
      "=\"\"": 8407,
      "Ä Die": 8408,
      "Bundle": 8409,
      ".utils": 8410,
      "Ä trip": 8411,
      "MB": 8412,
      "Ä soft": 8413,
      "_MODE": 8414,
      "Ä applicable": 8415,
      "Ä upper": 8416,
      "ERVER": 8417,
      "_al": 8418,
      "_LOG": 8419,
      "Here": 8420,
      "wp": 8421,
      "Ä Server": 8422,
      "Ä Client": 8423,
      "Ä chem": 8424,
      "Scroll": 8425,
      "Ä highest": 8426,
      "Ä Select": 8427,
      "Ä \"@": 8428,
      "Ä Why": 8429,
      "Sec": 8430,
      "heel": 8431,
      "Operation": 8432,
      "Ä connected": 8433,
      "irmed": 8434,
      "Ä citiz": 8435,
      "Ä Che": 8436,
      "Ä forces": 8437,
      "Ä www": 8438,
      "Root": 8439,
      "ANCE": 8440,
      "Many": 8441,
      "icip": 8442,
      "rgan": 8443,
      "Ä Tor": 8444,
      "Ä Press": 8445,
      "Ä Mor": 8446,
      "-line": 8447,
      "uled": 8448,
      ">\\": 8449,
      "Ä thus": 8450,
      "Ä Register": 8451,
      "hol": 8452,
      "Ä Chinese": 8453,
      "Ä posted": 8454,
      "Ä magn": 8455,
      "abilities": 8456,
      "Ä disease": 8457,
      "Ä remains": 8458,
      "Ä Prof": 8459,
      "-form": 8460,
      "Ä cin": 8461,
      "organ": 8462,
      "icate": 8463,
      "Ä stress": 8464,
      "]*": 8465,
      "Ä ----------------------------------------------------------------": 8466,
      "_context": 8467,
      "orry": 8468,
      "Ä died": 8469,
      "mat": 8470,
      "Ä starts": 8471,
      ".Message": 8472,
      "Ä runs": 8473,
      "Ä guide": 8474,
      "Ä warranty": 8475,
      "entials": 8476,
      "dict": 8477,
      "Ä Size": 8478,
      "uler": 8479,
      "Ä responsible": 8480,
      "_SET": 8481,
      "Ä containing": 8482,
      "Ä Price": 8483,
      "||": 8484,
      "FS": 8485,
      "Ä emp": 8486,
      "_button": 8487,
      "(uint": 8488,
      "Ä suff": 8489,
      "pth": 8490,
      "Ä definitely": 8491,
      "pute": 8492,
      "Ä marketing": 8493,
      "Ä WH": 8494,
      "Ä Sie": 8495,
      "+=": 8496,
      "OLOR": 8497,
      "Ä consult": 8498,
      "Ä signed": 8499,
      "Ä sequence": 8500,
      "lee": 8501,
      "Ä requirements": 8502,
      "hy": 8503,
      "Express": 8504,
      "MT": 8505,
      "sey": 8506,
      "Ä ult": 8507,
      "Ã¥Â®": 8508,
      "elligence": 8509,
      "Ä analy": 8510,
      "Ä dress": 8511,
      "engine": 8512,
      "Ä Great": 8513,
      "Ä Android": 8514,
      "Ä Alex": 8515,
      "mode": 8516,
      "Dictionary": 8517,
      ".Date": 8518,
      "Ã¤Â½": 8519,
      "VICE": 8520,
      "Ä families": 8521,
      "Ä Russian": 8522,
      "Ä Times": 8523,
      ".call": 8524,
      "$(": 8525,
      "Profile": 8526,
      "Ä folder": 8527,
      "ches": 8528,
      "Ä legis": 8529,
      "_row": 8530,
      "unes": 8531,
      "Ã™Ä¦": 8532,
      "Ä }).": 8533,
      "Assert": 8534,
      "agen": 8535,
      "Ä Hand": 8536,
      "Iter": 8537,
      "Ä biggest": 8538,
      "oreach": 8539,
      "Ä polic": 8540,
      "Ä permissions": 8541,
      "Ä showed": 8542,
      "Ä Element": 8543,
      "Ä topic": 8544,
      "Ã¢Ä¢Ä¶Ã¢Ä¢Ä¶": 8545,
      "road": 8546,
      "Ä Bank": 8547,
      "record": 8548,
      "Ä partners": 8549,
      "Ä Ref": 8550,
      "essions": 8551,
      "Ä assess": 8552,
      "UST": 8553,
      "Ä Party": 8554,
      "produ": 8555,
      "LC": 8556,
      "Ä ul": 8557,
      ".form": 8558,
      "hide": 8559,
      "copy": 8560,
      "UTF": 8561,
      "Ä SOFTWARE": 8562,
      "ÄÄŠÄÄŠÄÄŠ": 8563,
      "Ä Lin": 8564,
      "una": 8565,
      "ugar": 8566,
      "Ä administration": 8567,
      "Ä opening": 8568,
      "Ä scan": 8569,
      "Ä continued": 8570,
      "component": 8571,
      ".sp": 8572,
      "Ä happens": 8573,
      "ummy": 8574,
      "Ä PR": 8575,
      ".File": 8576,
      "Ä Download": 8577,
      "Loading": 8578,
      "di": 8579,
      "Ä waiting": 8580,
      "_ADD": 8581,
      "Tab": 8582,
      ".querySelector": 8583,
      "Ä economy": 8584,
      "Ä French": 8585,
      "txt": 8586,
      "Ä fant": 8587,
      "_;ÄŠ": 8588,
      "Holder": 8589,
      "SH": 8590,
      "Ä numpy": 8591,
      "Ä street": 8592,
      "Ä male": 8593,
      "\\Model": 8594,
      "anging": 8595,
      "Ä Bill": 8596,
      "Ä previously": 8597,
      "BI": 8598,
      "Ä Secret": 8599,
      "Ä mist": 8600,
      "Ä Field": 8601,
      "ups": 8602,
      "Ä Process": 8603,
      "Ä kept": 8604,
      "Ä OT": 8605,
      "Ä traditional": 8606,
      ".i": 8607,
      "amin": 8608,
      "Ä helps": 8609,
      "Any": 8610,
      "origin": 8611,
      "ilters": 8612,
      "ju": 8613,
      "desc": 8614,
      "Ä Account": 8615,
      "Ä )ÄÄŠ": 8616,
      "ktop": 8617,
      "olly": 8618,
      "Ä fs": 8619,
      "Ä Ãª": 8620,
      "Ä ut": 8621,
      "Ä central": 8622,
      "(test": 8623,
      ".An": 8624,
      "Ä satisf": 8625,
      "GR": 8626,
      "Ä Full": 8627,
      "Ä heat": 8628,
      "iber": 8629,
      "Ä onto": 8630,
      "mos": 8631,
      "Schema": 8632,
      "Ä factory": 8633,
      "\".$": 8634,
      "aws": 8635,
      "Statement": 8636,
      "(target": 8637,
      "Ä‰new": 8638,
      ".be": 8639,
      "Ä guest": 8640,
      "Ä mal": 8641,
      "ARY": 8642,
      "Ä reached": 8643,
      "Ä mouse": 8644,
      "Ä challenge": 8645,
      "Ä‰double": 8646,
      "Ä Tem": 8647,
      "Ä terror": 8648,
      "Ä extract": 8649,
      "_TO": 8650,
      "Ä separate": 8651,
      "Ä mir": 8652,
      "help": 8653,
      "Ä capacity": 8654,
      "Ä Property": 8655,
      "kan": 8656,
      "_create": 8657,
      "Ä Light": 8658,
      ".parent": 8659,
      "Ä understanding": 8660,
      "Ä easier": 8661,
      "Ä |=": 8662,
      "Ä enh": 8663,
      "Ä fat": 8664,
      "Ä protest": 8665,
      "amm": 8666,
      "_AT": 8667,
      "-of": 8668,
      "ils": 8669,
      "Ä Oh": 8670,
      "Ä psych": 8671,
      "Ä $.": 8672,
      "inds": 8673,
      "Ä relative": 8674,
      "shop": 8675,
      "short": 8676,
      "Ä Sand": 8677,
      "uestion": 8678,
      "Ä fear": 8679,
      "/ÄŠÄŠ": 8680,
      ".context": 8681,
      "Ä schools": 8682,
      "Ä serve": 8683,
      "zone": 8684,
      "_db": 8685,
      "Ä majority": 8686,
      "example": 8687,
      "Ä lang": 8688,
      "Ä‰Ä Ä ": 8689,
      "Register": 8690,
      "endo": 8691,
      "Ä processing": 8692,
      "_template": 8693,
      "-user": 8694,
      "Ä eg": 8695,
      "COM": 8696,
      "Ä Blue": 8697,
      "iro": 8698,
      "Ä remote": 8699,
      "Ä IT": 8700,
      "#!/": 8701,
      "Ä redistrib": 8702,
      "raz": 8703,
      "Ä Since": 8704,
      "Ä Tur": 8705,
      "Background": 8706,
      "===": 8707,
      "Ä reflect": 8708,
      "Ä pros": 8709,
      "cmd": 8710,
      "Ä whom": 8711,
      "Compat": 8712,
      "Ä Are": 8713,
      "Identifier": 8714,
      "Ä Thom": 8715,
      "_port": 8716,
      "gu": 8717,
      "Ä monitor": 8718,
      "rm": 8719,
      "Ä patient": 8720,
      "verter": 8721,
      "Ä gain": 8722,
      "-ui": 8723,
      "Inst": 8724,
      "Ä dies": 8725,
      "Area": 8726,
      "_filter": 8727,
      "Ä grat": 8728,
      "Ä reality": 8729,
      "ordinate": 8730,
      "olved": 8731,
      "Contact": 8732,
      "Ä compliance": 8733,
      "_or": 8734,
      "Ä Var": 8735,
      "dl": 8736,
      "Ä append": 8737,
      "GER": 8738,
      "(max": 8739,
      ".render": 8740,
      "Ä dynamic": 8741,
      "ordinates": 8742,
      "_options": 8743,
      "_column": 8744,
      "Ä batter": 8745,
      "space": 8746,
      "La": 8747,
      "Ä Source": 8748,
      "/bin": 8749,
      "Ä dos": 8750,
      "Ä Board": 8751,
      "Ä Thread": 8752,
      "Ä AL": 8753,
      "(config": 8754,
      "Ä Mer": 8755,
      "Ä miles": 8756,
      "_header": 8757,
      "ETHOD": 8758,
      "izz": 8759,
      "Ä benefit": 8760,
      "Ä integr": 8761,
      "(current": 8762,
      "ulo": 8763,
      ".default": 8764,
      "Ä Div": 8765,
      "Ä ton": 8766,
      "oth": 8767,
      "ervation": 8768,
      "edom": 8769,
      "Ä baby": 8770,
      "ceived": 8771,
      ".top": 8772,
      "riority": 8773,
      "Ä Local": 8774,
      "riage": 8775,
      "Ä attacks": 8776,
      "Ä hospital": 8777,
      "Ä female": 8778,
      "Ä Login": 8779,
      "Ä Flor": 8780,
      "Ä chain": 8781,
      "ashion": 8782,
      "Texture": 8783,
      "Save": 8784,
      "Ä farm": 8785,
      ".contains": 8786,
      ".Test": 8787,
      "Ä knows": 8788,
      "Ä generally": 8789,
      "ipeline": 8790,
      "Ä meant": 8791,
      "encia": 8792,
      "Ä nicht": 8793,
      "Ä contents": 8794,
      "PM": 8795,
      "chedule": 8796,
      "(line": 8797,
      "CG": 8798,
      "job": 8799,
      "Ä Real": 8800,
      "uer": 8801,
      "firm": 8802,
      "Ä Ã˜": 8803,
      "etro": 8804,
      "\"`ÄŠ": 8805,
      "Ä speech": 8806,
      "Ä thr": 8807,
      "foreach": 8808,
      "Ä warn": 8809,
      "Ä‰l": 8810,
      "Ä heavy": 8811,
      "<li": 8812,
      "Ne": 8813,
      "Ä investigation": 8814,
      "Math": 8815,
      "-title": 8816,
      "Ä church": 8817,
      "Ä despite": 8818,
      "chain": 8819,
      "Ä whatever": 8820,
      "arian": 8821,
      "fn": 8822,
      "Ä meta": 8823,
      "})ÄŠÄŠ": 8824,
      "UFF": 8825,
      "Ä regarding": 8826,
      "_SUCCESS": 8827,
      "mes": 8828,
      "Ä Intent": 8829,
      "Ä resolve": 8830,
      "poss": 8831,
      "ira": 8832,
      "force": 8833,
      "oice": 8834,
      "ÃƒÂ¢": 8835,
      "Ä pm": 8836,
      "Ä updates": 8837,
      "Arr": 8838,
      "Ä Ã‘": 8839,
      "testing": 8840,
      "Ä toward": 8841,
      "ntax": 8842,
      "Ã«Ä­": 8843,
      "Ä listen": 8844,
      "Ä goals": 8845,
      "InstanceState": 8846,
      "Dr": 8847,
      "Ä rare": 8848,
      "Ä trail": 8849,
      "Keys": 8850,
      "Cal": 8851,
      "Car": 8852,
      "Ä People": 8853,
      "Ä‰local": 8854,
      "classes": 8855,
      "Reference": 8856,
      ".forEach": 8857,
      "emb": 8858,
      "activ": 8859,
      "Ä prim": 8860,
      "redict": 8861,
      "Ä rad": 8862,
      "Ã¦Ä·Â°": 8863,
      ".Back": 8864,
      "Ä spread": 8865,
      "Ä clock": 8866,
      "Ä vir": 8867,
      "editor": 8868,
      "Ä efforts": 8869,
      "Ä branch": 8870,
      "Ä indust": 8871,
      "Ä motor": 8872,
      "Ä amb": 8873,
      "Ä datetime": 8874,
      "Ä rencont": 8875,
      "Ä Christian": 8876,
      "Ä Americans": 8877,
      "full": 8878,
      "Ä fmt": 8879,
      ".main": 8880,
      "Ä caused": 8881,
      "_update": 8882,
      "Ä Content": 8883,
      "ATCH": 8884,
      "Ä bath": 8885,
      "Ä Each": 8886,
      "Ä radio": 8887,
      "achment": 8888,
      "uzz": 8889,
      "Submit": 8890,
      "Ä restrict": 8891,
      "abin": 8892,
      "Ä Load": 8893,
      "Ä extension": 8894,
      "Ä essay": 8895,
      "Ä hat": 8896,
      "aviour": 8897,
      "toBe": 8898,
      "\":[": 8899,
      "Ä offered": 8900,
      "Ä vill": 8901,
      "(double": 8902,
      "Ã¦Ä¹Â¥": 8903,
      "bc": 8904,
      "_free": 8905,
      "Ä Miss": 8906,
      "Ä Ber": 8907,
      "Ä Ã¨": 8908,
      "Ä Like": 8909,
      "Ä helped": 8910,
      ".getName": 8911,
      "_AL": 8912,
      "Ä spirit": 8913,
      "Ä Apache": 8914,
      "ws": 8915,
      "Ä therefore": 8916,
      "(params": 8917,
      "_img": 8918,
      "Ä peace": 8919,
      "Ä incor": 8920,
      "Ä EXPECT": 8921,
      "Ä minor": 8922,
      "ipes": 8923,
      "Ä‰data": 8924,
      "selector": 8925,
      "city": 8926,
      "trie": 8927,
      ".base": 8928,
      "_frame": 8929,
      "Ä opened": 8930,
      "/json": 8931,
      "LY": 8932,
      "nu": 8933,
      ".De": 8934,
      "tf": 8935,
      "margin": 8936,
      ".Parse": 8937,
      "Ä pi": 8938,
      "Ä eq": 8939,
      "bd": 8940,
      "Fields": 8941,
      "Ä Tree": 8942,
      "Ä ban": 8943,
      "istan": 8944,
      "ÄŠÄ Ä Ä Ä Ä Ä Ä Ä ÄŠ": 8945,
      "Ä‰gl": 8946,
      "Ä produced": 8947,
      "system": 8948,
      "Mark": 8949,
      "_hash": 8950,
      "Ä bg": 8951,
      "Ä constit": 8952,
      "Ä League": 8953,
      "Ä mission": 8954,
      "_format": 8955,
      "([ÄŠ": 8956,
      "clusion": 8957,
      "!\"": 8958,
      "ÃÂ·": 8959,
      "break": 8960,
      "Ä‰switch": 8961,
      "Ä ther": 8962,
      "Transform": 8963,
      "Ä football": 8964,
      "-link": 8965,
      "route": 8966,
      ".auth": 8967,
      "Ä bag": 8968,
      "overs": 8969,
      "Ä enabled": 8970,
      "Ä rac": 8971,
      "(I": 8972,
      "CR": 8973,
      "ancing": 8974,
      "Ä managed": 8975,
      "_q": 8976,
      "NGTH": 8977,
      "Ä mac": 8978,
      "Ä Auto": 8979,
      "amente": 8980,
      "Ä '',": 8981,
      ".Append": 8982,
      "Ä pin": 8983,
      ".item": 8984,
      "acking": 8985,
      "Ä occas": 8986,
      "person": 8987,
      "Ä ti": 8988,
      ".Reg": 8989,
      "Ä haven": 8990,
      "Ä glass": 8991,
      "Ä \"</": 8992,
      "Ä Simple": 8993,
      "Print": 8994,
      "Ä surround": 8995,
      "NO": 8996,
      "Ã£Ä¢Ä¤ÄŠ": 8997,
      "Ä Ä Ä Ä Ä Ä Ä Ä ÄÄŠ": 8998,
      "Ä Many": 8999,
      "Ä \"_": 9000,
      "Ä weekend": 9001,
      "Ä somew": 9002,
      ".params": 9003,
      "small": 9004,
      "ATED": 9005,
      "Ä plugin": 9006,
      "fields": 9007,
      "Ä Initialize": 9008,
      "oon": 9009,
      "atile": 9010,
      "ye": 9011,
      "Ä vous": 9012,
      "LAG": 9013,
      "Ä older": 9014,
      "Ä gam": 9015,
      "Ä extremely": 9016,
      "Ä het": 9017,
      "enum": 9018,
      "Ä SET": 9019,
      "xff": 9020,
      "Ä timer": 9021,
      "/index": 9022,
      "Ä critical": 9023,
      "Rows": 9024,
      "_argument": 9025,
      "Ä execute": 9026,
      "Ä showing": 9027,
      ".xml": 9028,
      "-list": 9029,
      "Role": 9030,
      "typename": 9031,
      "_method": 9032,
      "that": 9033,
      "cher": 9034,
      "Ä Ã¢Ä¨": 9035,
      "XT": 9036,
      "Ä thousands": 9037,
      "Ä‰n": 9038,
      "Ä resp": 9039,
      "_price": 9040,
      "olut": 9041,
      "Ag": 9042,
      "Ä Two": 9043,
      "Ä becomes": 9044,
      "Ä hus": 9045,
      ".Use": 9046,
      "theme": 9047,
      "urb": 9048,
      "Ä /*ÄŠ": 9049,
      "erialize": 9050,
      "ARN": 9051,
      "Ä lose": 9052,
      "Lower": 9053,
      "Ä vel": 9054,
      "Ä defense": 9055,
      "condition": 9056,
      "Ä bes": 9057,
      "Ä dry": 9058,
      "Ä scroll": 9059,
      ".Show": 9060,
      "IEL": 9061,
      "ÃÂ¾Ã‘Ä¢": 9062,
      "Ä Rest": 9063,
      "Where": 9064,
      "oods": 9065,
      "Ä Jes": 9066,
      "Ä wire": 9067,
      "_INFO": 9068,
      "Ä strings": 9069,
      "gment": 9070,
      "Ä matches": 9071,
      "Ä electric": 9072,
      "Ä excellent": 9073,
      "Ä Council": 9074,
      "idade": 9075,
      "Ä wx": 9076,
      "push": 9077,
      "_entry": 9078,
      "Ä tasks": 9079,
      "Ä rich": 9080,
      "sa": 9081,
      "Ä Smith": 9082,
      "UNCTION": 9083,
      "Pointer": 9084,
      "pective": 9085,
      "Ä widget": 9086,
      "ista": 9087,
[...]
